module attributes {llvm.data_layout = "e-m:e-p270:32:32-p271:32:32-p272:64:64-i64:64-i128:128-f80:128-n8:16:32:64-S128", llvm.target_triple = "x86_64-unknown-linux-gnu", "onnx-mlir.symbol-postfix" = "mnist_model_cpu_initial"} {
  llvm.func @strncmp(!llvm.ptr, !llvm.ptr, i64) -> i32
  llvm.mlir.global external constant @_entry_point_1_mnist_model_cpu_initial("run_main_graph_mnist_model_cpu_initial\00") {addr_space = 0 : i32}
  llvm.mlir.global external constant @_entry_point_1_in_sig_mnist_model_cpu_initial("[    { \22type\22 : \22f32\22 , \22dims\22 : [1 , 784] , \22name\22 : \22input\22 }\0A\0A]\00") {addr_space = 0 : i32}
  llvm.mlir.global external constant @_entry_point_1_out_sig_mnist_model_cpu_initial("[   { \22type\22 : \22f32\22 , \22dims\22 : [1 , 10] , \22name\22 : \22output\22 }\0A\0A]\00") {addr_space = 0 : i32}
  llvm.mlir.global external constant @_entry_point_0_mnist_model_cpu_initial("run_main_graph\00") {addr_space = 0 : i32}
  llvm.mlir.global external constant @_entry_point_0_in_sig_mnist_model_cpu_initial("[    { \22type\22 : \22f32\22 , \22dims\22 : [1 , 784] , \22name\22 : \22input\22 }\0A\0A]\00") {addr_space = 0 : i32}
  llvm.mlir.global external constant @_entry_point_0_out_sig_mnist_model_cpu_initial("[   { \22type\22 : \22f32\22 , \22dims\22 : [1 , 10] , \22name\22 : \22output\22 }\0A\0A]\00") {addr_space = 0 : i32}
  llvm.func @omGetExternalConstantAddr(!llvm.ptr, !llvm.ptr, i64)
  llvm.func @omMMapBinaryFile(!llvm.ptr, !llvm.ptr, i64, i64) -> i1
  llvm.func @omTensorListGetSize(!llvm.ptr) -> i64
  llvm.func @omTensorPrint(!llvm.ptr, !llvm.ptr)
  llvm.func @omTensorListGetOmtArray(!llvm.ptr) -> !llvm.ptr
  llvm.func @omTensorSetDataType(!llvm.ptr, i64)
  llvm.func @omTensorGetDataType(!llvm.ptr) -> i64
  llvm.func @omTensorGetStrides(!llvm.ptr) -> !llvm.ptr
  llvm.func @omTensorGetShape(!llvm.ptr) -> !llvm.ptr
  llvm.func @omTensorGetRank(!llvm.ptr) -> i64
  llvm.func @omTensorSetDataPtr(!llvm.ptr, i64, !llvm.ptr, !llvm.ptr)
  llvm.func @omTensorGetDataPtr(!llvm.ptr) -> !llvm.ptr
  llvm.func @omTensorDestroy(!llvm.ptr)
  llvm.func @omTensorCreateUntyped(i64) -> !llvm.ptr
  llvm.func @omTensorListCreate(!llvm.ptr, i64) -> !llvm.ptr
  llvm.func @free(!llvm.ptr)
  llvm.func @malloc(i64) -> !llvm.ptr
  llvm.mlir.global internal constant @constant_3_mnist_model_cpu_initial(dense<[0.0835401713, -0.373944432, 0.206879765, 0.180731401, -0.428273022, 0.313445568, 0.191657051, 0.136042759, -0.325663328, -0.49137786]> : tensor<10xf32>) {addr_space = 0 : i32, alignment = 16 : i64} : !llvm.array<10 x f32>
  llvm.mlir.global internal constant @constant_2_mnist_model_cpu_initial("S\139>\AC]!>\82\1BK>u\12\1F>\95\CB\83\BD\CC\12\8C\BE\EF\91\05=t+\EE\BD\B5#\1E>\9D\05G\BD\EE\0D'=9\09A\BD\AA-x=zn0>\C1\B3n\BD5s|>\0E !\BE\05\D8\02>]\A7\91=Q\CA3\BDM\EBJ\BA\A4\AA\95\BEH\1A\8D\BE\C3\09\CB\BD\07n\0A\BFOf\1B\BF~7\00\BE\FE\0A\B0\BD\F7\F0\1D\BD\9D97\BE\022\B5\BE=\18\B7\BE\16\97\06\BA\DB\A5\16\BE\A8\02p\BD`>,\BEu\0FK>\CF\BE\E9=\D6\81\E2>\13\C0e=\14\D8\19\BD\A4J\B7\BB\EA\8D\E1\BD\F9\BF\87\BD\16.`\BEAL\03>\F0\15+\BF\BB*z=\F4\EDC\BEk\E1O>\94\FC\A4\BE\C1v\CF\BD\13\10d=\D0\EF\DB=\A9\D1\CB\BE\07l\E2\BEN\DF\A9<A\B3u=\AB\96\83\BE\08\1B\1D>\90^\D4\BC\B6>\CA\BEG\133\BDA?j=\DD\9C\DB=\0E\83\82\BE\D2\CB\AF=J\DD|>*\A7\0D\BF\7F\0D\9D\BE]\1BC\BE\9Bt\BC<*9K\BE\0C\AC\15=\DD\04\B0=#\9BB>\0Bj\DC=\EA\8F\0A\BD\C0\95\DC=\C01\9B>\F7\A0\8E<\E3J\17<\B0%\B0=(\DC\AA=C\D3\03<\91\91.\BF,\C3\7F=\A1\17K\BE\B4\A60\BEi\9F\D2=`\A7o=`,\94\BE\D1\148=\F8*\17>\B5\F9\1E>\1A\7F9>(\FC\E0=\FC{\A3=\88D\0C\BF\9E\02\CF\BEomQ<\13\EB\A3\BC\13\81\E9\BE\222\B2\BE>\0B\C2\BEL\F2\19>X\EB\80\BE\957!\BD_\BCC>,\AC\AF\BE\8E\90\17>\A9\AB\E3=?\05x\BEAY\08>mz3\BC-\AAv<\F1\A81\BDz*B=h\1A\8E\BD\1Ef\88\BE\99\EE\1A>\A9k[>\DFy\B1\BEU\AE\ED\BD3k\1F\BD\D4iH\BE\D0\A5\A7\BE\C7\\\A0\BC\E6\B5\09\BF\E4\98:\BE\F6%\B9>\08\B0\14\BD\AF\B3\BB\BE,\0B\BF\BE\FBQb=\B6&P>`$\AF\BD\E3\0E\92\BD \90\9B\BD\9Fb\80\BB\16*\A9=\AE\B8\A9\BET5\DE\BC\C9v\00>\A0\D8\C2\BE\0F\AFZ\BE\01\00z>:\A6'>\E4\00\87=\BA\AA\84\BC\ABm7>d'\A1\BEq\DA\A7>\0E\D0\11\BF\F85\EB==\B2u>\05a\BB9\96/2\BEt\83\C2\BD\9A\ED\B8\BE\BF\D2T\BE\C2_\97\BDy\F8L>Ty\98>\83\94\15>\8A\B3\1D\BEU\EC\A3\BEt l\BD\E3 \AD\BE\D0\03\9E\BE\FB\07\D5=\17E\22\BE}\82\A7\BD\C6\DD\D7<g#\DB>\89\ECH=#02\BE\FF\06\AD>\17\FC\16\BF\A4.\81<\10\FC<\BE \AB\0F=-&=\BFg\BF\BD>\ECb$=\DFHc=E\15\D4\BC\124\91>\95\93\B6\BECI\08\BFZ\B3:\BE\97\B1\1A\BF\A2\BF,\BE\9AY\0F\BE>\FF\04>\B1\7F0>q\98\10\BF+\A9$\BC+\08\8F\BE5\A8\F0=\E2b\80>ym\BC\BD\D5-\83=\05e\8B\BE\0C\FD#\BF<\DE\F9=Q\05-\BEJ\B2\89>\0C>\92>\A6\81=\BF\F9\98\A7>\87\8F\BA<\EC;\DB;\84\CE\CA>_)5=\A7?\8E;\FEP\98\BD\D1\F8!\BD7fT\BDP<f<\0B\A5\82\BEaP\C3=8\11\1A\BE\B7\A88<\0B}\B8\BD\A5f\02\BDPi_\BE\02\E1_\BET`L\BE\81(4=\1C:\AD>\AD\D6\8A\BD\14|\D6\BE/]\7F\BE)\DB\C2\BE\98\B1\18\BE\E1\15\9A\BB@\AF\F4=\22\97\19\BF\E9\19\90\BE\86{\13>\FC}\F1\BE\F8q\82\BE\0A\1F\EB=9^&=\82J\AA\BE\87U\84=\00V\85>\E6\CD\D5>\A3\DA\07\BBdE\A8\BD\08\C7\94\BE\A6\A7\89=\02\D17\BF%r%<\1E\05\BF<KG%\BE2\FA\A4\BD\F4\93\A8<\81\A1\F0\BD%\B6\98>g4\92\BEz\89\86=m\C1W\BD\FCv\BB\BD\B2\1E\83\BD1\CDO=\C0*\C2\BC\AE\DB\BD=\9EV?\BE\B7kO\BD\E2\\\BA=\EFA\E0\BD\D2\A2\E2=\1D\E3\AA=YFS\BD\E8\B6\8C\BD\9C\8B\1A=\99\1C\1F?\14\CA\AC=B\B5\A3\BEt\8CN\BEb\91T=\8D\EE\D1\BD/\B7\A6=W\AF\0B=T\CB\84\BE\17\F2n\BEQ\CC\19\BE\16f2\BE\B0\13\E9\BE\AB\BC\BF=\DA\CC\BD<\D9\8E\A4<\CA\BE\A5\BE\D8\B4\AA=\CA\A3\EF\BD\C7#\95>\AAB\9E\BDm\B4F=H\FA<>F\15\1A>\E4\CA?\BFt\BBZ\BE[3\DD\BE\ED.\0B\BE\00\D47\BC2lS\BC\93\91\99\BE\8C\09\88<\A5\B8\8B<,Q\B0<\F8R\DC;\1A\EA\EC;4\B5\E1\BD\AE\E8\C2\BEO\B9\FF=H\B0_\BE\83\FB\F2=\9C7e\BDj\DB\B5\BCn\0C\80=\AE\EE'>F\12\A4=\88\22\04\BF\B2m#\BE\8E\D7\F7\BD{\0F2;\F0\AA2<\97\0D\06<\06U+>^\8D\9F\BE\80\A2B\BE*\09\D2=\AA\83\8C=S\E3.>Y\0E\AF=\04\B2\0D\BCU\97W\BF\8D;\04\BE\AE7G=q\01\F2=\C1N\1A<\EE\FA\BB\BE\E6\EA\91=\D6\9A\1D=\F7\EA\0A>\AD.L>\C0\EA\E0<\C2\DC\19>\D7W\08>W\F5\F9=\CE\A7 =\F4\E3E\BD\E5\FE/\BECY\D1\BE\C71\1D>$\83\EF\BC\FAG\A8=\AA\A6%=aV'\BC\10\8B\1A>\F6\9A\F6=yq\00\BEu\AF\AA\BE\95E\E6\BD\B0\CD==c\CB[\BD\FF\80\AC;\BD\A4\A4=\B0\AF\17\BF\FB\D9B\BE\DB\01\D4\BC\D3\FE\CB=\00\BD\94=\06cx\BE\F6\17\CD\BE_\9Ez=\16\BE/=Je<>\0F\EE\92;\10l\FA\BA\DF\0D\18=\1D\ED!=\BF\0Fs\BC\A0j\AA\BC\F4\EAx\BE\C8\D8\CC=g\FB\B0>\1E\D9\AF>\06m\88\BD\0Ct\D9\BD\19^\FE\BEd\EBc\BD\17%\BC\BD>\0E*\BD\9E\F4\DC\BD\85\FD\DC\BExT4\BD\0EO\1F\BE\A7\08\F3\BDM|=\BE\83C\0C\BE\D5\BC\\\BE\BBM2=|T\A5=@T8\BE\E6Z<\BC\C2\82\8F>*[\E4\BD\95\CF\09\BE\83\02\CE\BD\DB\81:\BD\AA[\D5\BEz\F0e>\BB\13\95=\B6\\C<w*\C6\BD\A3\D8.>\85\CA\B7\BD(\01\E6<\C0\E3\A2\BE1\FC\FF\BEV\19\18>k\F4\B7\BEXW\F9\BC\EC\83\AE=\18\DD\A8=m\1C\9E\BE\03\934>7\09\89\BE\A17\83<vJ\1D>m|\98\BEz\CD1=$\BB\B8;\CB\D9h\BF;n\A0=\87\E6\C3=\AAOT\BE\B0\C5\8F=}Y\83=x\14/>%xu\BE\BD3\A6>\82S\FB\BD\8D:\B4=[\02\17>\FE\FD\A3\BE\AB\DF_\BE\CB0\B7\BE#\0C\14\BE\13\B6\0B\BE*\F9J\BF\A4\F4\D4\BE]\1F\B9=\9D\9Br\BDq/\1D=C\9A\0C>\F4\DAK>\D1\B76\BDn\04A>\00/\12>,\AD>\BE\B5\B4\C9=E\07\DE\BDd\C5\9F\BE\8E\906>\DCa\AE=\C4{$\BE.\02\85=\8C\D7[>\AC &\BE\C0\B7\C0<l}9<\98p\A6\BC\9D\AB\82\BE=>L<\B4\05\F0\BD\E1d\B6\BE\A3\CE\12=\AE\D9\A7\BD\A1\22K?\A1\CF\03\BD!.\94>\1C\05\7F=\DC\0F\00<\F4\97\8C\BE\7F\BB\8C>\A8\DF\12\BE\F3\B6\C3=\F0I\C8\BE\9A\D2\8F=\04~\D4=T\9B\BA<\EC\0D\A1\BEK\96)>\9F\A0G\BD\FE\D7M>\B5\17~=\9C\D4\C2;\FD\F9\C6=\11\8C\9E\BD\81\BE!\BE{T\03\BF\95\DD\A3\BD\AB}\9A=\A3\A9\87\BD)\90\9A=\12\D4\FC\BA\F0\F1\BF=>\DD\E6<,&\CC\BD\E0\B7\1C\BC\E4\96g\BE\97x\96\BE\E3\AE\EE\BE\8C\F8\A9=R\DD\DF<\\\BB\0E\BF\EB\C7\89\BDOO\A7;\10PL=F\F95:5\F9_\BD\A1\196\BF\E6\EEw=\E9\8C\\\BE)_\C2=\F4\CBm\BE\D6\05\A7\BB\8B\1B6>\DE\91\85=\FD\86\1E>\98r+\BF\D3\0F\1B\BD\13X\CB\BE0\F0\18>0\93\04>\B4Z\0C<\0D\BD\8A\BD\C2\F5\D6=\B8\ACw>-[\8F\BDw\82\90=\F5\C8\11\BD\8C\8Ev>y\F8W\BD/\83\8D\BEq\D2\E5=\0B6$\BFi\A4\98<\BB\CF6\BEv]\9C\BD\A7y\05>\F0\F5\1B>\10|\01>V6Y\BE\FDK\C0\BE\AF\0E\95<\22\A3\9C=\C5*\DC=\F0\11\82=8\C2\10\BD\E0\CB\AD\BE\E2\AE\E5=F0\15>\00\F6\BF=\AB\22\C2=\DC\AF\EA\BC\A2(\BB\BD\08\18\99=R\18\8B\BE\D3y\9B=\D91\DB=\05\B7b\BE\01)\CD=\CD\CD\11\BDt\9F=\BDO\14\F0\BE\19\14&<;\F5\86\BD\BCy\81\BD\98\19\B0\BD\DD\04\E1=\FA\B8\19=\A1\D6\A0\BD\E5\07\06\BF.U\B4<\F9T\EB\BDVB\0A>G\AA\7F\BE\B2l\D2\BC\9F\A4\1D\BE\14\8D \BF\94\A4<\BE\E2\06\D6\BD\DE\85\AC=\B4A\B2\BD7g\05>2f\14>\B7j\9A=\1Eu\939i0\D2\BE\0FZ\D3=\CB\8DC>\FE\DE\04=\E6m\FD<\F1{w\BD\B231:\B6'\8A>_\9FP\BEa\D1C\BEeL\87=\C3\8D\C6\BCI\DA\88\BC\B0\96\CB\BE \B2\DB=\E9\16\0E\BD&GB\BEN\12k<\9C(:>\E0\05\92\BC{\0D\17\BD\D7\EFB\BDr\DB\05=/\D3_>s,z\BE\F3\C0\87=\C6\18@\BE=\99\83\BD\D7\F5\1E>t/l\BE\8F\E1\85=\BAJJ=\04@\0E\BF\13\DAj=^\A2\C7\BDu\A4{=\B2\EC\CB;i\D4\8A>\B5\CF\D6\BE\F1\E8\EB=\F8\E15\BE\B5\11s\BD\D0\B7\06>qhR=\9E\81\CA>-l\BC=^\DA\A5\BDw\19\91\BD <\A1\BD  \A6\BE\FB}K>\AD0\83\BD'\89\F8\BE!\CD\A1\BD\CB\D1\01>\F4\D0\85\BF\B9]<\BE\D6\AE\B2\BD\1E\8C.\BEm\8E\1D>HH\1E\BE\BD\EC0>\03\A4\ED=\8E7\99\BBD]\F8=\1BeG\BDS\04\1E\BE\F2\88B>\B3#\00=\FE\8E`=\BArd\BE\91\8Er\BC\E6\9B\8A\BF[\83\8A=\C4\B7\AB=\E1~!>\0F\BBW=\07#\03\BEh\E2\03?\A5^\05\BF\22\E3J\BE}\FE\B5=\9C\E1\95>\07`1\BF\88\B0\9A\BC\13I\F4<\15\B7\D5>\B2\DD+\BDs\91\A5\BD\F2\9C\9B>Q)\FA=\8F\D6\94:\18\F3 \BCT\AEi\BE\97\94\9E\BC\C0?\EE>\A3\9Di<\04\D7\D5>\AB\9A/=\F9\00-\BD\09\0B+>\81\22\CF=\80?\BA=\C0\\\B0=\9C\DB\10\BF\16\E2\CF=6\89\B3=*\0C\E8=\\(\86\BE\A5.A>\D5\078;D\A7\93\BE]\02\02?\CFRC>Zi5?\8AFw\BDC!p>\9D\D6\CA<\E7\F7\80\BD\88\1F\13\BD\8Eq\89\BE7\DDX>\F7\81\1E\BE=3\EF\BC\CAH@>\8Dy\97\BE\10\0E%\BF\1D\FF\9F\BE\EFX\D9\BC9\16\9E\BE,=\8C\BD\BB\E8V=,\B9;>z\84\CF\BE\A6\E4\A5\BD\B2.\1A>\96\C2C?Q\8E\02\BF'\DA\B9<`'\B0=\9E\F3\A4=\D3 \E1=\B4\CD\04=\8Br\C6\BD\07\E6\9F=A(\E9\BE\CE\AE\08?\D2>\8C=0E:\BE\B5!\9B\BEo\1B.>|IT\BE\A47\E0\BE0\E3\8C\BD\A7_>\BE\E1\D7D\BD$\D0Z\BD\95\00\B7\BD\A1\81\8C\BE\F4'\03>\\k\86=\0E\BF\02\BC\EE\0F\B6=\A7W\09<\FE\A6Y\BD\F0S\83>\96\B0\B8=_'\08>1\98\CF=|\A4\1F\BD\1E\EB\B1\BEe\D4\D3;\97R\DF= i\81>\92T\CE<\9F\E0j\BD\02\85\22;\0BsN=\A9_\0F\BF\C3+\B4\BC\B9j\09\BE\95-$>6N\CE<\0B%\A5=T\EE\9A\BE\08U\18\BD6\BE\F4=\F9\E3L\BF\FFH\FB\BEGFG\BEc\06n>\16\0E@\BE\A7H\DA\BE\DA@\81=>\A6\F6=\19\C4\0B>1\B5$=1\09\BD\BE\8A*\A7\BD\A9\18E\BF\DF\CE\B0=\06q\00\BE\84\CEc=F(\DD\BEJ\06\EA=\04D\EF\BDv\CD'\BF{\0A6>\BD\B8\A5\BD_\0D\A3\BC}i\95\BCA\E5g\BF\1D\F9\19\BE\05W\B1>\C4\C7\02\BF\05\C2\E4=\A5\15\EC\BE\98<8\BF\0C<\89\BD\D6\90+;P\9B\FF\BDY\E5\FF=\CE1\89=\D3QO>$\92n\BE\B2eM>\06\97==/`Z>8\C92>\FC\DE*>\D3\12\CD=\A5W\0C\BEO_\99\BD\9D\0C\E6>\98[\9A\BE4}\A5=5\E9\B7\BE\1D{\ED={l\F1<\C3\EDV\BE!m0>\1B\9Cp=+]7\BEn\D9\03=\AB\A8\86\BE$\A5\1E=\14qc>\00\12\BF>\D8Z\82\BD\BE\EA\B5\BCA\A6\85='vh<RK\86>\08\C8\F1=\1D\01\B7\BB\A9?\BC\BC\A5\F1O\BE\1F{\94\BDi\AC\07\BF\8C\15\9B=\A8z\F4=\CEF\90\BD\0B\F6\88=\A5\88&\BF\91\0A\C9\BE\C1\A0t>\\\F6r==Ox\BE\9Bx3\BE]\FFL\BE\BA\B1\D0<\9F\9F\AE\BDY\96W>\E1I.<*\A3j\BD\BF\D7\D6=\BF\F9\1A>I\13A\BE\C3\E2$>\EC\F9\1F\BF2z\05>\B3&4=t\C9\D7\BD\E99\A8<\A0\06\D0<y\B1f\BE\CA\13\C6\BD\FF\96\F0<\DBb\CB=\B1K\83<\C6\0F\F4\BCK\DD\1F=\12M*\BD&\18\BB\BEnu\17\BE\FDb\D4=s\84\8E\BC\DC*\A7>\BF\A97=O\A6k\BCX\F4\09\BFP\BC\0C\BE%\AD\98\BD\97SY=v\D6*=\87(\00=\C1\CE1>\97\E8\9B<\CCH\A0\BD\E7_\DD=\0CR\9C\BD\DE\85\E5\BE\88K\1D>8v:<K\A9\9B\BE_'x>\E9\B1/>\CD\D5\87\BEo\9Em\BDL\8F\F8<4\AEW=1\B3\87=\8CV:<\90\BD\9A\BEw\02\CE=y\A4\B8=4{\81\BDO\BD\8F\BF\DA\C1U=\07\E5\AE>\9E\DB\1F\BE\11`m>\06\17P\BFZ\E3\84\BD\0Fa\C1\BE\07b\B6>\B1\A54\BEd3%>\99\ABx\BFH\83\EC\BD$kc<\88\09\D8=J\16\11\BD\02\B76=\842&\BD\9E7\0A\BEK\FD\AD=\81\0F\D2\BDU\C6\9E\BE\97\83\E0\BE:\F9m<n +\BF\CA4\8C\BD\AB\ADJ\BF\F6b\F3=0b\B5=CS\1F>\87c\C1=\83\A2\19=\AF\E7\D1\BEi\E0\DF>j\EEL\BD\F0\F2b\BE\F5l\F3\BDMWN\BDv\8D\9A\BEA\AA\96<\14&\96=\D3\D7`\BFG\BD\FF\BE\8B\0C\09\BF\88\93\1C\BF\BE\09\E1\BE#\DD\C1\BE\EB\FE\B9=\8A}5>l\06\CE=\8F\18\F3\BD`k\9E\BD\EA\22\02\BD\DD\90\0D\BF3\C0\93\BE\BC\8D\B4=\EC\EC3\BF\E0`\12>l;J\BD\97o+>\E6q\E3\BE]\B5\F5\BE[W\1F>\F5\09\90\BDL\FD\D8<)\D3\C5\BE\AD\FA\01\BF\F9\0Dv\BBC\02\0E>\BAT\7F=\0C\19\C9=\FA%\D3\BE\CF*\AC=\90\B0\F8=m\DC\CD>G\99\D7\BE|R\ED\BE.\FB\91\BD\96}\07>\01k-\BF;Dy>n\0D]>\BD\EE\EF<v\048\BD\85\01\86<$\F4\9A<\91e >\8BC\ED=g\BC\E5\BB}z\AD=\B2\18@8\9EZ\0F>8\8C\C7\BE\C5\FB\CB\BAv\1A\06\BE\09Ul<$hD>\FC\1B6\BED\1Ep>\A09\91>a\FE\09=\A8\AE\BB>\0E)\1A>\1C\84\9A=\A4\07^:\09\DDY\BDIe8\BE\DD\B2\CC\BE\02A\86;;w\C8<S\12\94>n\A8\88\BE\E4\AE\A5\BE9\CDg>\918,\BD\0D\09\C0\BE\85mL<t\EDm=\B8\99\FB=\1E\86\A1=\E5]\87\BEw\EB\8C>\F27~\BD\DB^_=\85I\9E\BE\B7\CD\F0<\C4\EC\\>\0A\CBS\BE\00\10H>/\0A\8B\BE\D4\C0\F6\BEX\D1\D9=\1E\BF\A4\BD\C2\E1\08\BFV\0D\F6>\94\F54\BF\B4bk\BE\E7\01+>\A2^m\BD\FAs\9B\BD\80\83,>!t\06\BE[\01\AD\BE\B1r\0D>i\B7R>,\CDo>\D1\CD\0B\BF`\94\1B\BE\16\02\14>\D2\07$>\91o\EF=\F5A\12=p7\1B\BF\F4\9E\DB=\C4[F\BE\7F\7F\0A=\C9\0D\F5\BD:\CE\08>gJ\B0=\10\E3\91\BE\00\12\F7;\D7\8BQ=\A2\AA\91\BE\B8\B9\D7\BD\CAOV>r'\F4<v\F3\C3\BE\1C\A8e=&\98?=\CC\99X\BD%S\85>\A5T.\BF\81\A7p\BC\AD\D5\D7=\0BE\CF=-&m>=\0D\99\BE\0D\13\B0\BE\D6r\89>\EE\7F\E9=\FF\9A\91<!\10O\BE\81\12\8A<y0)=\1Be\C38\812\C8\BD\C1\E5Z\BD`\DE\AA\BD\CEA\E1\BD\9A8_\BE?\B8j\BD\9C>U\BD\F56\B8=u\FB\08\BFn\AF\C5\BE\C6\13I=gQU>\A8\CD\E4\BEDA\04>n5\A1<)\ABE>\EC\D2\97>\A2\DD\98\BEp\\\88=\E8O\B8\BD\B9\CE\1C>\F0\ECJ>H\0C\0D>\1D\0E+\BD\98\B0\D7<\8Az\A5<Vmf=\B7\FF4=jsy>>'\F1\BE\E3\D4\C3\BD\B0:?>]M\B2\BEIO\83=:\87m>\CE\F8\06>\D91\9A=\A8\19\7F\BE2\EC\90\BC\D5\DC\B8\BE\8A\1C\85>\AF[\E8\BE\CF\B3\84\BE\88\93a=\E0\B9\06<\10\FC\86=t\B04;\96\BBQ\BD\C2\EA\01=\B7\C2{>\\&\22=\0F\18e<\8C\EAR>\CA\A5M\BExb\08>\07\EEs\BE\EB\A1\AA<\92,h\B9y+h\BE\E3G\03\BF\E8T\AE=\DB\0AZ>\D8x\83\BE$\A8\12>s\CC/\BE\C0\E81\BD;\06\0D>\F0W\1E>]e\CD=@j\19>n|\83>\D7\08i\BD\1Dw\84\BEi\F3'\BF\DD\F5x\BEe\CE\86\BE\F9J\1A\BE\A60\89>\A0\11\83\BE/\9B\AC\BE\14h\22\BB2I\F7\BE\1D\ACr\BE*N\87\BE0\D7\FF=\9E\0EL>\F0\AF\0F\BF\99\CA\04>\17\AFV>\81\97_\BCK?\09\BFx\0B\02>\DA5\01\BD\04H\12>(h\D0;\FCF+\BE\BFK1>\A0\ABs\BD\1D7\C0=%\FC)\BF\A7 T\BEXs\1A\BD\B1\0A2>\0D\018\BE\06\96\98\BE)\DE\9F=\88Y\95>S&P<U\DBs>Wi\01\BF\B9\FC\9A\BDi\A9\04=\84\E3\E2\BE\D2\FFK\BE\93Y\DB\BE\0DS\04\BF\C0\F4\10=D]\E8\BE\B2\84\B6\BE\B9>\0D>*\F2U>\98\89<\BF\F7xh\BE\CF\C6\C7<^\FE\DA={\CF!=\99\E8\AF\BE\1C\92\12\BE\F1\D5\15>\DBR\F1=\84\E7\DB\BE2\F2\F5\BE\87L9\BE\D0\07N\BD\BC\F1K\BDVW.>\B6\1F\EB\BE\19\AF\91\BD7G\97=\C9\AF\0B\BE\FE\F0(>\0B\AA\D9=+\10\01\BFB1\80<P8\1A\BEB\EA\97\BE\12\DF@\BF\7Fp\9E=\13\A7\A6=^>E;i\C9I\BFY\F5\17=\AAs\BE<\DE\D0\1D<\9D\D7N=\9E;\97<\D0e\CF=Pw$>Jl\F3\BEa\D4E\BE\B3\E8=>\9F\DEh=S-'\BD\DF;\B7\BE4\D5\15\BD") {addr_space = 0 : i32, alignment = 16 : i64}
  llvm.mlir.global internal constant @constant_1_mnist_model_cpu_initial(dense<"0x9BD80E3FA48C9CBE4DC8233F598056BD0B05C33E1473863E81C4D53BEB4E1C3E3D5D1C3DEEC4013B0A44FCBC6559B6BCB5869BBEAAC0473FB40A3CBC0AD3F8BE03E620BE9F479F3EB699283DB56DFABEE75DC93C1FBB04BE55672C3FF7EE47BEAFF892BEF87C1E3EE10009BFEA0D1CBE6A66D6BC380E19BF047C8DBE303E343EA785C1BEFB51783DAA985EBD20062EBD45980C3F1ED6BE3AD3C73D3F77A5033F6D42AE3DFCD8B33E41B2CBBD761826BF0812EB3D5E9BF73EB50B8F3C9A54BFBE3B2FCC3D714402BE35FF50BE95AB1BBF8D91F33EAE484C3E56B0BABE362225BF148921BF0AC790BB7955883EC9163CBF5595D63ECCDC5BBE292DE43E60AD633FA3E46FBD88981F3EEFC0A43E99B9803EED408D3EDD0298BED570DE3DE25A00BF8C7EDCBDE75605BC18901ABEB4701A3F40A6D63DCD2ED73EE03E8C3EE882673D9CC1E03E9BDC073F7C88273D918518BDE30C103F8F52D0BE4D7624BD3C3C4DBD54D72FBFDD4A2FBE279D003E61AC893D072435BF89FCB53DED16173F3EECF03EE1BE02BD33A6D13C1E0E4FBEC725213FD3DAFA3E2E541CBC7BA306BDFA268DBD956ACC3EB49FCF3E7C964D3D0815C23E8345583E54E275BD92103B3E3DDC9CBE425727BE0329E93E3908373D36A35EBD525AE43BAFF85ABC744459BCE64730BFE37D85BE6946B03C13DBAF3E63759B3E36ED82BC57A0313FF0BD633ED398873C"> : tensor<128xf32>) {addr_space = 0 : i32, alignment = 16 : i64} : !llvm.array<128 x f32>
  llvm.mlir.global internal constant @constant_0_mnist_model_cpu_initial("\D5\A6y>P\10t=\E8\F7\C8>\A9\22\13>`(c>!a\96>\E8\C0\1E\BD\87\A2%\BE\BAv\14=\F1\\\17>\12c\92\BE\DEi\19\BEC\DAn>\FBf)\BE*?)\BE\93\96\0B=F\22\18\BE\AA\C4\A5\BE\D7G\AD\BD\C9\A5\DF\BD\84A\09\BE\DD\D1\0D\BE\8E\C5,\BD\\\BBx>s\C5y>\89\A6\C9\BA\88\C4G\BE\CD\ED\EB=\AD\FD;>\89R\19>\12\A6|>@\BA2>\0D!\C1>\E5\98C>\BAq\FA=}\16\C1>O\C6w>\03\AF\85\BE\C3.\AD\BE\DE[\19\BE\E7\9E\CD=\DEB\17=\D4\CD\B1=Fj\B9=e\12-\BEG\17\F4\BE\F8\AE\C8\BE\7F\863\BD\0Dw\B9>\D3\8E\A0>\8D&\03>\9A\81\F2=\BC-\DB=\86\22\13=q\F6U<\\(t\BD\F8+\C8\BCFaF>\B1\D9\C1=\A4\B9\D5>*$\BD>\D2i\AD=\1D8\8D>\EC\FAF>\88\02\EA=\0F\DA\A9=\00xK>3\DE\B6=\BC\B1\EC=5\90\1B>\A6\F3\C5=\EF]\BC=*r\17\BC\D6r\B9=\00`\19\BC\EA&G=\A0S\BB=o\D1\AF>3s\9D>\EC\DE_>MA\DF=-\F8\E1\BD\E5\D0\A8<\92\DF4\BE\C9\0E5=e\F7\B1=\\\D0\8E=\93\C1\B5>\8C\F8\11>K\A0\92=u\1Eh>\C9\C5\8F>\D4=\A0>\15\B6!=\0C\83\9C\BD\C8t\\\BD\1D?\8A=\C8xA=\A3\9B\CF\BD\AB\0D\94;*;\7F\BC2\C65\BD\FD-J\BDgK)>\E2\F9}>\1C\9D\9C>\10jI>P\15\F5=\C4+\B1=\E8\B3U\BC\A5\D7\17\BE\C7\C5\E6\BC\B0\90\E8\BC\22\9Bo<\C2\D06>p\DE_>\AF\EB:<&%@\BB\0Dhr>\93\D5\FA=\DB\91\E7=\C3\0C\83\BD\B8\D7|\BD=\F0\D5;[\D2`=\F6\FDF=2p:\BC\C9\BE\0B>H\15d\BD\01\B3\E3\BD2\DC\B0\BD%\E3;=j\F0T=\FF\B1g>\04J.>J\FC\9D<\D8\1D[=\17K\03=\D2,@=+\D51\BD\9CUW\BEQ$\14\BD}oN><\F8\B6=\01\E4\C8<\89x\0E=W\17\E0=\97E\8B\BD\91Z\F3\BBx!\A8\BD/\13\C5\BD:\9E\A7\BD\E3\F3D\BD\8A\BC\C4\BB\865\17;o\8F\DB<g+\E8\BDi2-\BE\EB\EF\FD\BD5\9F\AD\BD\EE\92\9F\BC8\C3\92=[\F9\A6=V\89x\BD\A55\03\BD\8AN\8B=\E7@\A3=\F2\E6\8E\BE\B5\9F\B9\BD\CF\1AJ>lq\C3=\83@/=gt\86\BD\DFu\E9\BC#\AEV\BD\E2^\F5\BCHT\BF=\C5\80@\BD\12\C6\14=\DE\81O\BD\F8/\16\BD\04\84\A4=\CDz\D5\BB\E6\EE!=`h\D8\BD\BFsN\BDP\E78\BD\A9\1F\C3\BC\EA\8EM=8.\F7=zmV=\13\F2\B9\BC\9AP\91=\0C\A1!\BD\F2\F1\85\BCa\FD5\BE\87oT\BEa\F6\A4>\C6|g>\DC\AE\0C>\98\0C\1A\BD\81\A5\AD\BDh\AE\BD\BC\A0\D7\1A\BD\EA\9E\04> \16\BD\BBfr\D4\BD\13\F7j=Y\AC\17\BD\CE\BD\86=\BC\E5\09>\09>|=\E6\BF\BC\BD\F4;\1E\BD\13\E89\BE\DA\04\C1\BD\1C\DE\BD\BD\ED\AE\1E\BC\E7T\BD\BCN\84\BD\BC=\E5T:\DA\A6\14\BE\8F\A0\7F<\B84\A0=!\E41\BE\E6\ED\93>\B3\81\8F>\06\F6\13>\DB\95\8E\BD\B0\B7\AB\BC\CE\B2\F9\BC\19[$<\7F\8D\D5=\FD\9D\F8\BCe\96\AE\BD\1F\02\06\BD\E2$\AE=\F8\FD\03>\89\CA\0A>\E2\85\1A>Lr4\BD\8Ax\05\BD\DAV\0D\BD]\D9\04\BC\EA\A1\98=\F3\CEb\BD\D1m\C8\BC\DA\9D\9D\BD\81wH\BC\CA\A8\C4\BC\AAm`\BC\FD\A8\E3=f\8C\EA\BD\A7\FE\85>\80\22\CF=\D3\B2b=\F4*H\BD:\17\81\BD\E2\CCv\BDd\17\13=\159%>D\B5\A8=L<\DB;\D5\A3\12\BD3\C0m=P\E0\C7=M\BD\10>D\020>\9D\E3w=\F2\AC\C5;\BC\9E\82\BCLE_=`\D6\22>\8C r=\14\E7S\BB\05\9B\B1\BD^# \BC20\14=\7FA\93\BC\D7\0E\FC=\01r\D1\BD\1C$W>\C6S\1A>*\89\A8<\06\BEy\BD\F95\F4\BC^\01\9C\BD\EB\A9\BD=b\1A\9B=\FA\CA\EF;\84\D3q\BD\1A2\D7\BD\8A\B7\85\BC\FEi\87=}\F3Q<\02\E2\11>\\|\AD=b\C0\97=\0E7\E4<.{\8C<\97\FC\08>\AEw4=\14\D6\E5\BC\FC\B1~\BD\BA\1B\84=\E5C\F6=\93W\D0<X&&>e\CF\E9\BD\88\\T>\E2E\0D>\BAW/;\8E3A\BD\22\7F]\BC]Z\03\BE\FB\AB+\BDt\916\BC\16Le;xz@\BE\E3\1D\F7\BDR\8A\9D\BC'\07\AB=\FBp\FD;\A0\03\84=\AC\DC\B8=\D9'\A8=\E9\1C\04\BC@nE<i\88\15=\15n\8A<\061R=?\17\D1\BC,\84\B5=\F0h\F3=34\16>(\13\AC\BB\06#5\BE\86\82/>|\D9~:\03t\D4\BAQ\EE\0A\BD1\AD\09\BDp\EF6\BE\F6>\CA\BD\F8\93\BD\BD3ZE=\88\B7\1D\BE\08\C2\09\BD\9D\AC\CE\BC\A1\A1\BE;\EFj\F8\BC\FA\FD\DE\BB\8B\B5\93=\93\98\C8;\EE\00\01=-\86&<\FC\09\CD;\E9\1A\CD\BC\86\01l=\AE\17\D4=)\D1\D2=\B6\A9R>\B2&8>gw\E0\BD\8B\114\BE\F56\C1\BD\99[\08\BE\021J\BE\90\A57\BC\C0\F8R\BC0\93K\BD\E8\F3\85<\9B~g=\8B$\12>\9E\84w\BD\D4u\81\BD\BCh\DB\BC\F5\A9D=\DC\F8\99\BD \B9\EB\BD#v\F2\BD\9C\C4\C8\BC\89\8D\99=\A1\B6\AF=\1E\B7\C9\BC\F4\DA\CD\BD\C8\D6K\BD\90\BB\A1=xN\97=g\B9C>\17\95$>\D2\83\AC\BB\BC\CE\E7\BEc\1B\11\BET\17\E1\BD\AAN\FE\BDl\1A\9F\BAJ\E4\ED=O\9C(=\C7\DD\F9=\1DX\E5=9\89Y>;\ACm\BC\92\AA\C1\BD\93|\8E\BDkO0\BD1\E4\C6;\8Br\87\BDy3~\BEdS\0A\BE\A8\85\02\BD\B6\D2\A5\BC1b\DF\BC\CD\AA\08\BEw\88\ED\BD\0C\96F<\EC\AD\BA\BD`Y`\BD \B3F\BDD\A5u\BD\A74\DC\BE\C8\BC\82\BE\BB^\83\BE\D9U`\BE\1Cc\06<xd\FA=F.R=\A6$\12=\14\BDd\BC]P\A5;\86\DBg\BD\0A_\04\BE~\BB\02\BE\E5\7F7\BD\C533\BD\EE\D5\BD\BD}\\\FB\BD7_\BC\BD\12b\A2<,\FB]\BB9\CB,<\0D\8C\86\BD\84\D6\0D\BE\CB\FC\CF\BC\9ER\02\BEJ\CC7\BEx\06\C7\BD\DD\13\83<\CC0h\BE\BD\90\90\BDY\04\84\BEb\84u\BE\02+\BE;C\00\EC=\E0\E6>=\E8\8F\00>C\90\83\BCm/ \BD\99}\15\BE9\BB\DA\BD\0CY\D0\BD\DB\BD\02\BC\AB\A6\84\BD#\EAp\BD\8E\89\D6\BC\EA\15\10;\FF'\8A\BBi\11V\BD\B8\B5\D5\BCX\BF\BF\BD\FB\94k\BDZ}\13\BC\AF\8EB\BD\1B\08%=\BD,o<\CE\0D\A6\BDW\E5\B4;\AA\96\0E=\09\CE\81\BE\D2\96\06\BDsR\EA=4\E2\04>#\9B->\CB\AF >\B4\80\B2=#\B8\9B=\22{M\BC\B0.\09<\FA\EE\\<\A8\D6\0B=\93$\E3=\86gI=SJ\1B\BCfp\FB<\C9,\D3<\F5\A8\88=G\FF\AE\BC\8C\DEa\BDJOJ\BDi\7Fs=(\80\D4;I\97\96=\FEHI<\9B!C\BD\17\D2\F5\BC\93\0C\C6\BD\9F\E3f\BE\B4\C2!\BD\129\D0=\F5\0A\\=LR\AD=y\0Ei=n_\1F=\0C\D8\1D<F\17\B6\BD\9B\9E\0C\BD\0DO\D5\BC7\A4\B6<l:\A9<\DB\0C\04\BDg\87%\BD\00\B2\1F\BDt\1E\D1\BB\9C\F9K\BD\C2V\8B\BD\E7\D2\F0\BD\F7\A2\E3\BDI\D8\89\BD\FE\7F\C9=\06}\AD=[%%;\B2\89l\BD\91R[=\B0\031\BD^\FB\8A\BD\1Es#=\01\D5\D2=gY\C7=\CB\07\EF=\F9r&=\9B\80i=\0A;\D9=y\C2\DE\BC\89u\81\BDc\92\AE\BD-\C2\C5<,%\0C=`\D6\09\BDD\CA\DD\BCa\F8\CD\BD\A4\B33\BCe\E4B\BB\05&e\BDt!\A4\BD\9DI>\BD\EBv\E7\BC#/.>\02\84L>\A1Fo=\00\E7&\BE\83\ECV\BE|\AC\01\BE\C4,#\BE\BEY2\BD6d\09\BB\90\97-\BD\8A5\9B<\A3W\B3=\09\AE\BE=3\F4\B1=h;\0C=}e\86;]\BBo\BD\D1\02{=l\B9\D4<\02an\BD[j\D4\BD\C7\F9%\BEd\F3\D6\BD(_\8F\BD2\FE2\BE>\CFB\BD[\A9\9C\BD-\8B\9D\BD\A6h\08>d\F1H>L\1AM=B\1C\B5\BD\DB\13\CF\BCz\96[\BC\BA`\F1\BD\C6\0B\D5\BD\DB\D0r\BD\8F\BB\B0\BD>\DAL=3\DA\14>\A2\D0\F3=4\87e<[fV\BD\EBT\E8\BC\F8\1B\AA\BD.\B5\A5<\A3\DA9=\D3\BD\E8\BD\06d\B1\BD\AB<S\BE5B*\BEwz\92\BD]X\E2\BD\90\D1\C3<\85\D5!\BE8N8\BE\F9\CAJ=\05\E9f=\046h\BD\1A\0Ag\BE\7F\16n\BD\09\91\E7\BD\E4\F4$\BE\E5\9C\8C\BD\E2\E1\F9\BD\9C(\08\BE\14\A3\EA=!\C5,>\C1\9A\1E>\B4\B2}=\EB\E5\19\BD\A91U;\B1\B5t\BD(\8E\92=\CEZ\98={?\99\BD\83\F8\06\BE\96\14\FB\BD\ED\E6\9D\BD\96\AF\19=\D3\06\C9=nd\A9\BB\F3\D9\BA\BD\AF\0FK\BE-\E4\D1\BC\D7L\AA=/(`\BBv\14F=\A1\CB\8A\BD\9B\9DV\BD.1\CF\BD}\C2%\BEUf\17\BE)\19\CE\BD\12\0D(=DPj>\83\DEb>\F5`\12=\926\13=\83\FE\93;tvw\BDK\AE\FD=l)\BA=\EA\F7\C2\BA\C2\05\10\BDoXg\BD\9C\DEJ\BDmS\D3=\18O9>\F4J\9E\BC:y\8E\BC\BF'Z\BD#\82\96\BD\\\FB5>%\88r<\15S\EC;xq\8D\BE@\8D\1A\BD\E9*\87=2{\FD\BD\83\F9\10\BET\984\BD)\8F\85=!\98r>,\8Ek>\ADt\E6<\F6#\22\BCX\C0\8F;\14?\B3\BCd\E87>\07\DB\09>\E9R0\BC/\9BK\BD\D4\E4~\BC\03H\90\BB\0E\DD\CA=\85\DA3>X\B8\F1<2\00U<O2\84\BC\E0\C7\D5\BD0\B1\FF=\EF\BD\BE=\AB\AD\CB<K\DC\0F\BE\8E:\FA\BDJ\CF,\BDX-\09\BE\E4\D1\B8\BD\A0^_\BDhW\EF\BC\E8\98J>\01.p=\19&\E0\BC\CDy\D9<K\05\CB=\18u\D9=\DF\D3\89>2\B5X>\D8\B5\CF=m\DBs<J=\0E=\D3\F5/=\07\95\E7=\0E\93\E0;ns\00\BD\FA\10\7F\BD_\1F\07\BE2\CD+\BEB\E6m=\\:\D5=[$O\BD,\A7\86=w|\B7\BC\11H_=\EE\DF\DF=\8B\0A\D4=P(\C1\BD\E9p\98\BD'\B0\8A<\ABF:\BE\8E\0A\EC\BD\92*\12>d\B6\1D>\1BjP>\AD\9B\A9>\A6\A9\9F>N\11,>\A8\A6\0F>\FD5->#E\E7=\EF\00\19\BE\13\BCi\BE\FEi\22\BD\ADl\9B\BCH\C0\81\BD\84\CA<=\ED\AA\C0;\\[\A4\BD\D9d8\BE\A5\C6\DE=\13\DF*\BD\1C\D6#\BE\FFe\12\BE\10\F4\A7\BDK{'\BEv6}\BD*_\BE\BDw?\CC\BE\E3\9D\96\BE\CE8=\BE;\1A\B6=o\A2\84>;n\1A?Y\E7(?\ED\8B\B3>H\CC\93>\F8\89\0B>v\E9\87\BE\A1\02\DA\BE\D7q\08\BE\22\05\98\BDt\D3u\BD~\831\BE6\E3\FF\BDf\8A\B0\BCg\C3\A4\BDvE$\BE*\C1\1A\BE\9CH1\BE\CFp\93=\A2\B1+=\04\0E^\BC|\D3\B7\BD\0AJ\CA\BE\81\AA\9D\BE\B6<\AE\BB\13\9D\F0\BC-\FC\9B\BEN\C4\E4\BD\BF\C6C>\08+)\BDA\A7\1A\BD\995?=k\F5\94;)\EF\22\BE$\D8\8C\BD\A5\A7\F9\BD3Y\8D=L\D24\BE\B9\8A9\BEZ\C1\B9\BD\96\D18\BE\FF\F9\B2\BD\D0\9F0>D?\02\BE\13)\90<\16\F3M>\B4\81Z>\C3\BB:>%\1F\14>\DB?\8B\BD\C8?0\BE{\E1y>.\0A\06>\06\DD'\BE2\996\BE\DD\09\7F=\9Dm0=\80p\E7=\D2\BF\C7=WF\18>rK\1C<\08=\AE\BD \89\09\BE\07C\FC;\19t\8A>\81\06\10>y\1A)=J\A1\BA=\C7Z\E5=\F6\98\AF<0\02q\BD\83\18\D9<\E9Eo=\D0\\\D1=\DF\7F\1D>0\AF\C2>\D8\D6\88=?A\1D\BE]\1BL=\CD8x=\9E\10\0B>\14\9B\DE<\8Ci\BE\BB\B9\D33;\DC\E6\DA=\09M\D7=J\E9\DC=x\A6\FA=IoN=R\82o=N:\88=\19a\A3<\A6\C5E\BDms\E2=\19g\08>\14\D2!=\94\87Y>Ij\94>\85=7<\C2\19>>\92\D7\BF\BD\07\A2\98\BD\1Ae\1C>\E9\D0B>1\157=o\9D\89\BD&,d=d\F7$<\A6\9D\04>_6\9C\BC\B2\C8\EB\BD*a\D3\BD\A1&k=0).=g\94\85=|,\A4=\98\849\BB\1C\9F\B2\BD\C9I\BB\BD]\84\1E=\05hv=:U\C8=\FC#5=\0A\A9\9C=\FE\D0\F7=S_\89>Rx\08>\8C\CC\B7\BD\95:z\BC\FD\A3v\BDk\EC\1C>\0B\89O>\96\E9\08=e\00\C4<\89\85\AA:\B6\97\E1\BD\80bv=\F6\19\8E\BDT\8B\FF\BCl9\BB<Z\E4\10>\0Cf\CA=\8A\D2C<\FD\B4\09>\0A\05|<\BAs\B2\BD\88\C0\D7\BD\13\A8\96=m\8C)\BC\A6mK<\C0\D8\DB=\80b\C8<0C.>\9Edh>X+\09=\16\81G=\BA\C2\E9=\9Ex\C1=\A6\C3i>\8BV\08>M\A1 >\9Bw\DD\BB\AATC\BD\84\FF8\BE\8AN*\BD\05(\8C\BD\FC\92<\BD\D6[\C0\BDa\EB\CC:\FD\91\0C>\A6\EA\9C=\89\09\B8=0kp\BD\8A\CB\C6\B9+\01u\BC\C6\D8\D4<m.\A9\BD\E8\C2\F0\BD}\FD\93<\CF+\16>G7\1E>\01\00\C7=\A0A\04=\91\C4\93=S\D0'>n\0F\CD>\B4\A7\AB>N\D1->\F1 \D8=\A6`d<\C7g\AF\BD\7F\CE\13\BE)%\BE=e\BD\8A<\00\F4\F8\BB\DA3\02=f\B03\BCk\A1\0E>c[\8F<s$>=\11\D1v=U\C5<\BDU\FA\8C=\12\FF\E2<`\ED\14\BD\0F\E6\FA\BD\85+|\BBp\12\81=N)\F3<7d\E1=\A92\82>u\92G>\11:\A6>\C2\93\17?Lj\BB>j\85z>\A6\1B\BA=\14\FE\B3<^\E3\8B\BD8<^\BD]\C83>!\05\C7\BC\9CHt\BC\AA\A2#>\BEL\B7=+\FE/>:\D7\FD\BB\B2\FF\0B\BD\EA\88\82=\BF\99h\BC\F7^\F8<l\CD\0C>\04\ED\8F=vy\8E\BD&m\19=\BF+V=\9Dc\08>\9E\00A>\8C\10->\A2\F4\A1>\E2\B8\9F>\A0\AB\01?\C8\00\B2>\87\A1\90>N\D3\CA=u\9F\E3={\DC/<\8AqX=-\8D7>X\E0\A2=\BB\9DB\BD\EC\D1\D9<\B4\896=+o\D0<9\9E/=\17\97\E5<d_g<\99\1EI\BC\9Dif\BC\8Ew\04>}\96\D6<\AB\E2\7F\BD+\E9b=}o\B3=)lo=~E4=\8F\0CT=\1D\BF\B1\BC\B7n\83>\BEy\D9>\A5\A8\9B>\0A{5>\D8y\C2=o\A0%>\D7\17\EA<\80!\05>{\E6P>\A4y\FA=\E7-\0B\BD\F9\BD\9B<4 \D2\BC,\B0\0D=%\A4\18>\D6\E8U=\0E\B7?<H\C7\90\BD\F9\07\BB=\D6\10\C1=\02k\97=\CBd\22=2\CCp=\04\FF\1E>\87F\C1=\C7Y,<\191\C9<r\A8\95\BD\08?l>\A53\AF>\B7\99o>y\E0\22>{\98\05>a\05\94=<<\ED;H\96\F8=tw\FD=\80\82\12>TZ\0B\BD\22\22\AE\BC'NB\BC`\F3\08\BD1<\1A=\E2-\22\BC%\81\FE\BC\93\B9\CB\BD\8A\1E\C6=p\1D\04>J\0Dz=\A3\EF\DF=\08\11\AA=\8FP\\>;X\D9<\A5\8F\0A:\1E\1A+>r\B6\8E=0\E1\B5>\12\D4\BF>+\E1S>\D1I(;\0Bx\08>\22\CA\9C=\AD\04\A2\BD\94\8B*\BC\C4\13\C2=\AFp\EE=\1A\C87\BD\A2\A5\BD\BD\B4\09\F8;g)\05=ct\DA=\AAI\AD=\16\EC\0C\BB\CD=\01\BE\84\E2N=b\CD\BD=J\EA\89=\ECf\C1=\82\CA\9E=\0F8I>|\91\AF=\02\D3\BA<]\D7\07\BCi\FE_<\19\00\AC>-\96\A2>y\C4\9A=\89j\1A<\11\E5#>\96\15\8A=\BF%\C6\BDt-\C3\BDy~%\BD\06\03\89=\C0\BB\A3\BD\80\C6\B5\BC\1C\C9\CE\BCZ\CEM=x\98(>\CE$;=\BA\F2\16\BD\C1t\1C\BDV\94\A5=\90V\B4=u\C6\93<\1B\0C\FE=\DCQ\F7=\F8\B5\1A>:I\BE=$\E0\83=\C6\B7Q\BD\89\C4\E5<\87\DB\D0=Jdx>Y\22\04=\FA)`\BD\F8`\D2<\CA\CC\BB\BD\0A\EBb\BE\B7<U\BE\B1\AB\CE\BDV\13g=3f\F3\BD\85\99?\BD\F4\EE\C0\BD6N\B8<\95V\9B=\0D\175<\E8\C0i\BC8\0F\CF:x\FA\D1=\95\F7h=,\BC9=\BEvh\BD\BD\E8b\BC\DB\00\D3=?\FE\8F<\C8[\ED;_N\C3=7N!>\1D\C1\91<O\F8:\BE\9E\D4\15\BE\F4\1C\12\BE%\CB\F5\BD\D2\7F\9A\BE7\D7z\BE,0V\BE>x\E9\BD\81&m=Fat\BD\97\CEp\BDrF\0C\BE\DDW6<R\C7\98=\CEf\B4\BC\D9Q\17\BD:\DAY\BD\92\C0\82=\12\16\B0<\F4N\0C\BBsA\1E\BD\B1v\E0\BC\F0H\F4\BC\\\B4\B9\BC\9E\0A\D4;+\09\E2=\C3\11\C2=\EC\B7\AE\BDPb\0D\BE3\D2\03\BD\C5\C2\F7;\94\80e\BD1\F1%\BE\13\DBK\BE*\87%\BE\A2\C2\BF\BD\88\99\9C=\1E=#\BD'\9B\85<\E8E\97\BC\07\14\B3<r\C9\D1=\F3\0D\C7\BC.\A7\CB\BC\1C\80\E9\BC\07\BB\1E=a\D9\A7\BC\94[0\BD!'t\BDp\FF\DC\BD\CD\19\0D\BD\E8\E7\BF\BC\18\C3\F0<\0D\0D\8E<\B5O\1C=K\0B \BE\ED\C1\EC\BD\FB\8Cq>OR\89=t\7F\B1\BD\C0(B\BE\96\9E,\BE\A9\EA\0B\BE\EBR\C4<}\8F\B3=\14\1C\94\BC\CF\ABA;\E1\FC\C5\BC\A6\10\97=+\81\CA=\1B&\93\BC\C1+X\BD\11\0DA\BD\0D\96I=[\BB\EC<q\19\A8;\E1&\07\BC\BA\C0\96\BDA\0CN\BC\9BW\A4\BD\22\F7\C0\BB\F5Q\01\BDM\90\FE=b\FB\CB\BD\EA\8C\029\CF\14q>\C0\8C\16>\83\C1\FF\BC\AE\F9x\BEJ\C3O\BE\B6\BF\F9\BD\DDI\9F=\0E\8C\A6;\09\B4\90\BD\9A\FD\0F\BD\C3~\B6\BD\F7\B7s=~\D0\CC=\12>&\BC\B2\F2/\BD\E6\BB\9F\BC\F7E\AD<\F9\F2\C4\BBY\B5\FB\BD\00\05q\BD\16?\FD\BD\B4\15\EB\BD\F7\91=\BD\BA>\EB<U\D6p\BC{\D1\0F<[\BA\BE<L\08\BB=\FB`\A7>\B1h >Q\F6\BC\BDH\A3}\BE6\80:\BEl\0B\EE\BD6\8C\EA=\13mc=\01\9DM<ed3\BC\B2\A7\E9\BCw@\C0=\00S\85=\89\95\7F<h\C9b=5G\FA<\FA\06\F3<\9E\F6\CF=jX\97<\83$y\BC\BA\0Dw\BD3\F35\BD\DDa\22=\F8\15/\BB\AC\A9\8B;\22A\91\BDf\86\81\BD\87\FD\85\BC\AD\90\1B>\0B\DA\81=yI\C3\BDg\12\1C\BE\A6\0E\F4\BD\A2%!\BD\9Db&>%\9D6\BDXw\AE<\84\1C\8F<\90*x\BD\EA\8Ah=;\04\CE<!v\04\BD\853\87\BD2\0F\D5\BD\83\82b\BC\\\07\F7=\A0\1C\A7=~\01F\BDG4\10\BE\92\A0h\BD\8D1,=\B6\C3{=W\89\8B=Sx\11\BE\F5k\99<\EFI\94=Q\99\19>1\05\00>WzD\BD\A2\8C.\BEX[\81\BD\EE/\F8\BC\D2%9>\A8\D2x\BC\16(\C2==\94^=L\EA&\BD\8A\98\96\BAy\10\CD=\09\E3\9B\BD1x\05\BE\E9!\E2\BD\A2e\A6;5A\C9=Y\0AT>\9Bb\0D=\E8\C9R\BD\7F\C1\01\BD\15w\D6=\A9B\CC=\18\9B\06\BB]\F7e\BD\BE_\80\BD_|9\BC\8F-\0E>\9F\EF\B7\BC\D1!\D8\BD\19F\1B\BE\0B\1B\01\BE\A7\FF0=\F1,\E8=\DD0\ED\BA\B0\E3\00\BD>\8Aq\BD\1C],\BC\1E-2=\95\DF}=VD\12\BE\C1\B7\15\BE\AAg\ED\BD\AA\A3\C3\BD\EF\95w=\B4W\0F>\F6\EC\D1\BAT\02\0C\BE\F0z\BD\BD\E3\CC>\BC\D7\BC\90<\0D\D4y<B]_;S?\82\BD\8F\B6\FE<|[Q=\8D\BB\DF\BC\85\D2\F1\BD \9A4\BE\94\AA\DA\BD\03\E6\0D>\1D\D4,>ig\87\BD\D3\96b=\12\D2Z;8\E5\CD\BCr-q=\D6o\AB<\B3\09\D0\BDE\CFW\BE\89\D3\0A\BD\0A1\8C9m$S=\AA\FFP>\E1\AA\88<W^2\BE\9E\AC3\BE\E9\AA\F5\BD> \02\BE\FC\11\8F\BD|\ABt=\90h(=\FD\BD\FD<@\B0\BD=5\E6H\BD\ED!\87\BD\BCJ\08\BE\A2Z\E6\BD\96\9C\BE=6\7F\02>\C0\03\A4\BD\AC\AC\A0;\E4t\AA\B8\E1/\B1\BD\B8\E1B\BD\C1\9B\0A\BC\BA\10\0C\BE\07\14\1C\BE\8D\EA\12\BC\9D\E0A\BD\D6\EC\A4=:\D6\07>\F3_\0F=\93\B5\0A\BExY\00\BE\CD\94\14\BE\8C\9C\B3\BD\C0\E9\AF\BDl\EE\CD=\86\03\F7\BCZ\E6\82\BD\8C\DB\89\BD\1E\95Q\BEe\92\B2\BD\D4o\87\BDX\B5H\BD\DD,\10>\CD\B8\09>\BF\90\A4\BD\9F\AD3==\9E\0D\BD\19\1E\8C\BD\CA\AC\FA\BB\E8\C7c=\F5\DE\AB\BD\A6%<\BD\F1\04^\BB<\F2\BF;)\08\A6=\0F3\A6=\96\94'\BD\A6\B6E\BEf\83=\BED\AB|\BEl\EFo\BE\F1\9DD\BE\1C\C7#\BE\22B*\BEk\E3\FC\BD?\EF\E7\BD\85\DBz\BE\85\D1\22\BE;\B8\1C\BE\09c\02\BE\BC\11\B8=\F2\AE^\BD\E32\0B\BEjI\EA<o)\D8\BD\C2t\AA\BD\90\BE\95<\82\A5\88=Y\8Fa\BD\F0\D2a\BD\B9\E5\B0\BD\84\9E\9A\BD/s\F5<`\22\15=\85B\98\BD>ek\BE\D4\87f\BE\BEmh\BE\22\B2\83\BE\CC%[\BE:,\BF\BE\DD\DF0\BE0\17\18\BE\AE\06V\BE\B3\87\8B\BEqO\8A\BD\04C\F8\BD<1\15\BE\E3n\B6=\E5\0D\8B\BD1\E4\18\BEi9\0E=s\AF|\BCs\F9\19\BD\A2\E3\B6<\22\0E\F2=\CC)\A8<\BE&\80\BC\E8C\19;\EE>\F4;\D0K-<\D6`\94<\E6X\15\BE((\16\BE\F6\FC\D3\BD`U\1B\BE\17W\99\BE\BA'\ED\BDha$\BE\F7C\F9\BD\FFS\15\BEq\E1[\BE'\D1g\BE\A6\F9\F4\BD\F0Dz\BBD\0D\C4\BDR\EAM=p\A7\22;c\C2^\BD\E7\EF\1B\BE\E6\DB\06=)*\BE=\B4c\DE>J\F0\1B?\C9n?>$c\11<\BB\07\D0\BDD -\BE\B6C\9D\BD\9E\86\CF\BC~,\19\BEK\07S<\B3T\B8\BD\DB\AEO\BE\15A\A0\BE\A4\93G\BE\22\1A\05\BE\14d{\BEd\B3\91\BD\9C\9A\E5=E\C2\B6>\A3V\05>\9B\A79=\E66\B6\BE\19Y9\BE\F3\FF\8C>\16\1A\F0=t`{\BE~\8FA\BE\91`\9B\BE\87uo\BE\A5V\EE\BD7\D2\88\BE\F3\1A\AE\BE\C7\8C\98\BE\10j\8D=\0D\DF\8F>+\E3\A9=h\0Ao\BE\\\92d\BEy\0E\B2<\AE\B1a>\18\8F5=Wyo\BE\960\D5<\D4\B5!\BE\8F\EE8\BC\9F\17D>.\CD\C1>Gf\15>EV\E4<\E2 b\BD4\A4\E8>\17\E4B>\E4Y\FE\BD\E5$\EA\BD\C2\A1\CE\BD\E0e\85\BD:F\A7\BD\88x\CC\BD\D7J9=^\D3k\BD\BD\BE$\BE\9C\C4\F0\BD\EC\02\81=J\DA\C4>3T\\>\9F\AD\90=\F4\C9J=\D6\C1\06\BD\D5\02\B9=Fil=Z\A9\86\BE0\B5\BE\BD7R\18\BD\B1\A1t>p\C6\88>\F9\99\F8=,\87\0F>\03G\08?w\81\86>\ED.\04=\E105\BD*\99\EE=\04\EA\C7=\04#\BF=\02d\1D=\0F\93\F8\BDj\09\E5\BA\95\12\83=E\84\CF=\A6\D3b\BDY3B\BC\B8\BB\83>I\0F\02?\A0\07\CC>\8E\97\03>?3\BA\BC\1B\EC\DF\BDnV==\D6\AC/\BE\8B\EBT\BE\8D\EF\9C\BDeW5>!\D5\A1>\BD\EFW>\BD\D8\99>\F1\99\F6>}\BE\10>d/v=\97a\1C=\0E\0Eb=(\99$\BD\E1\1D\0E>\18\FE\92\BD\AA\FD\87\BE\98\0D\85\BD\EE\D5\D2<\FF\94-=\07d\AF<h\8F}=\9E\F3\D0=\A1m\C4>\AA\C9\C2>{\C87>\E5J\E9=\BA\16\83\BD\97\B4L\BDZ1_=\FE+[\BE\15\09=\BE\E0\F9\0F\BD \94\89>\0Ejc>\D6-?>-\A4\95>DH\9B==\B3J<~A\04=P\01;\BD9\FC\9B\BDX\A9j<\A6\1FK\BD\09\EC/\BEV=\A9\BC~\AF0\BD\F9/\16\BB\BB\B2w=\B0\86\0E\BC\89\D4\15<[\EB|>\B74\80>\F9\1A\10>\00\C3\9A\BC\C4X$\BD\E7Er=\0E\E8\17\BEW\8A\BA\BB\E4\E7\F6=\A6\BC+>\B1\FB\A6=+\8F]>\E8HD>p\96\00>)q\8B=uz\DF\BC\A3\F3\06\BE\22\E1\05\BE\C1\05:\BESO\FF\BD}A\13\BE\CBH0\BE\C7\1F\DF\BD\EB\A24\BE\96!c\BC\AA\B5\08\BD\03\11\C0<\AC\EB\8E=\C6]\E0=\C8\EF,>\B0]\B1=2\F9\9D\BC\AC\A4%<>+(>\8E\A5X=f=\12>\B7\04\A7>\88\F94>@Rb>G\09\9F=\08\AFX>w\06P=\10\9E\D9=\E0\F3c=\FB@,\BE\ED1\EA\BD\AAs6\BELj\11\BE\D9:(\BE\D3vw\BE\CEy\EC\BD\B2\\\F1\BDaZ\9B\BD\9Ew!=k1!\BC\86\19\94=z\DB\C8=W\93\00>\1F\B0\10=-\A4\A0=\B4>)\BDn\D2\C6\BD\C5\B5\FA\BD\D3.\85>\87\19\02?3\A8\8D>\CE\E3/>`\FD4;(QJ>\83\E50=\8E\15O>\BF\B1\02>e\028\BEC\AC!\BE\00\F5\A2\BD`m\D1\BD\D7k\B2\BD\A4\00]\BDTo\A8\BD]\EB\94\BD!\D9G\BD\92\9E\1E\BCzi\CE=\11a\05>\22\C5+=\89\03!=>\D4\94=\8Fw\04>\99\A4\8A\BD\FAw\0D<\BF\FA\EB\BD\99L\AB>\81\D6\EE>\C8S\9F>\EE\A9N>b\E1\C1=\03\0A,>\1A\EB<\BA8\81@>v\EE\86>\E8Q\91\BD\B6\C5\DF\BDU\CBt\BD\01\94t<\ECB\B0\BD\AB@&\BE\F5\BD\06\BE\0B\B1f\BD\E4}$=\F2\9Cr=\FF\FA:>&(3>.\DE\C7=\85\1B\96=\C5\BE\95=\ABz\02>\C1K\12>\A0Z\09>\ED\7F\8A>\AD\D7\9A>A\C0\BA>R34>\C5\DE\C1=\01\06\F3=\F8\99\F4=\8A{\AC\BC\B3\E4\04>\1C\A7\8C>\9BE\AD=\00\EE\07\BD\C8\AC\19\BB\EDI\C2=~\0C\DC\BD\892/\BE<\E8\F2\BD>d <G\DD\F5=o#\9B=\B6\D6\C1=\F5/\C5=\B9\A0Z=]\10+=\1FB\8C=:\9Ek=\88\12\CA=hJ\BA=\15Q\8F>,\FC\9D>Uq\84>\D8\A8\01>\F0 .\BCc;\B0=\9Cs\1B>\9F\9D\ED\BC\9B\0C\09>\93J0>\D2\C7\F3=\9A\8BO\BD\A0\D8\82<\C2;\D2=0U\9E\BDt5!\BE\98\C3\EC\BD\E4\C0\16\BC\A2\81\E2=\81\FA\8C=\9Ca\C5=\FE\03u=q#\9E\BB\AB|\A2;\BE\AC\D1<\DE\CFA<\F6\93\D7<tU\80<\EA\DB\05>\DE\A3\CF>\F6\D5\A6>.\F3\AC=\99<}\BC\82\A0\C5=\92\10\B5=\EB\F9\8A\BC\C9\A3\C4=X\0EG>\01\DA\19>\B7q\BF\BC\B1|\AA=tr8\BCS\11\C1\BD7\D2\A4\BD\EA[\96\BD(\CA\F3:g\87\BB=\A5\A5\A4=\03(\12>I\7F\08=\85\85\97<\A7\A2\B8=\1A\E4M\BDc]\D7;5\87\BD<\E7\FB\22>*\0C\99>\8C\9B\02?\CF\ED\E1>Y\BBU=R\18\8A\BCc\DFz=\B4Da<('\F0\BC.UO=\D1\DA5>L\F8\DF=\F0\AA\E6<\01\\;=ow\92\BC\ED\9F\88\BD\95|\DE\BD\BBi\D8\BC\C0\E5\B0<7\C1\B9\BC\E4\A4\96=\D4=\B1=\A44\03\BC\0B5\EB\BD\02V\A0\BD\CC8o\BC\10\86{<\02\82/>M\08\94>\85\0Cl>\B5\EE!?qv\04?\EC|\D2;\DB\8B\02\BEez\D2;>'f=\91\13\89=\9C\E7\8D=(\FD8>,\8D\CE=\12C\87=\AE\02\AE\BCK\C5\0C\BC\90PV\BD\07o`;\C8\B3\04\BD\D8N\87\BC\D9\F6\DC<\BE%\BD=\82\C0\93='o\1C<\8B\DF\C2\BD\0Cyn\BD\D3T\1C\BDJ^d=\89\E2+>\E2#\18>\86\1A\1E>Q\E2\F8>\E3\FCn>\ABo\F1\BD\1D\B3\C0\BD6v\FD;:\13\8A=\F8\05\B0=\10Y\8E=\AF\A2Q>\B4\04\1B>HF\C4;\EC\1A\1A=\AB\AEG<\FD\CE\08\BE\7F\88\A1\BD\BD\9E\A4;\EB\22\10=\85Bz;\F0c\A3;\18\B3\FB<\A2\81\96\BD]\03\1D\BE\E4\8C]\BD?\F3\B5<\A8\84A=\E3\0D\14>\09\EC!>|\8A\87=@\8F\A4=0\81\EF\BD\B9\CB\BF\BE\F6\908\BEdK\0E\BBJH$<2\96\D9\BAim\A9<\F4\1F_>\E5L\CC=1w\B2<t\12\C3\BB_\1DV\BC\BB3\90\BD\04\F8\99\BC\FC\89\92=\E0\E2\E5=\FF\95\BD=\0BA\CA<\A3\8F\F2\BC'\B9\B4;\11a\B5\BD\9FY\92\BD\A2\FE\8C<\A6\A3\EE=\F5\82\96=\CC\E1\DF=p\E9\\\BD\97A&>-\0F\A4\BD\F8p\CE\BE\86\E8)\BE!4I=$\90\85=\12 \C8=|\DB\B4=[\EF\E2=\C9\94R=\06\F6x:n\BF/\BDM#\16=\1C\8E|\BD\8CO\E0\BDg\10\\\BD\B5\A9\C0\BCk\16\E0=\1E\AF^=\EER\D0\BD\BA\E2\08<\86\80\E2\BDN\C9`\BC_-\92=\98_\1E>\F6\DCX=R\FF\A0=\F3\0E\C7\BD\8E\DDZ=q\EEz=\12\A4S\BE\F7\BA\04\BE\A3\11*=\0B\A3\AB=\EC\A6\83=A\D7\BB=\B8\C3\ED=\A65\86=\10p6=\CC?\7F\BB'\C5\D3<k@\86\BD\02\B9\C1\BC\F0\C2\8D\BC\ABu4=\EC3\C9=\9F\FF\D9\BB\1Dy\BB\BD\AA\12U\BDO\97\A5\BD\C8\1Ct\BD)[\FD<k\0D/>\86\E9\AE=\22\F4\F6<\A9j!\BC\8C\C6w>\BCQ\0F=U\F8\81\BE\C5\0B\E6\BD\E7\CD\B6<\A5\ACR<\E4N\05=6\CF\A2<\C3\96\B3\BDW\C30=\A9\8B\DD;\F6\CDS\BD\00l\88\BC\FA\80\E7\BD\0F\BFX\BD\C8a+\BDH\B7\9F\BD\A4G\85=\E9\FAe=\9B3\A9\BD\8B\17\0E\BE\93C\FC\BD\8A\17\9B\BD&P\BC\BD\E0\90\E9=\FA@6=\83\8D:\BD\8F0@<\CDG\C0>S\BE\1E>\13\E2\B4\BD\11\F6\E4<\D2\F9\87<9\14\84\BC\FF3\FA\BCG8j\BD\FE\9F\A4\BDG\FBt=\BBY\01<\DDN\D8\BD\8D\AA\BD\BD\0Fj \BE\A5\A5\C8\BD\F2\83\FF\BC\95\1A\E1\BC\B9\C7R=\CD\D8\95=\BE\DE\C3\BD\A4J\19\BEf]\16\BE\FE\BB\09\BE3h\13\BE\DF\B1\C1=Y\8C\0E\BD\E4\F3\CD\BD3\F3\18>3\1B\19>\8D\B9\8F=9\F3\85=\A4\CA\88=\D8\C3\C5<9%;\BD\B6:\8B<\EE\0DC\BC\0D9\D3\BC\EE\11V<\A9\C3P\BD\D8$\9D\BD2\B1\0D\BE\B2$\C1\BDW\D1\8A\BD0\E2\05\BD\C9$F=\B9\1C\11>-\9A$>+\C6\91\BC\AB\FA\1D\BE\0A!\BE\BD*5\1A\BE\A3\02\F7\BD\A8\E7\C9<\C9\B8c=\A6\E0\BC<\CCl\F0=.\82\C2=XQ\1C\BD\12`j=o\10\9E<\13\CB==\04\8F8\BD_\D8\BD=N\E5\C1=\94F\90;'\AF\8B=\CE\C3\CF<\B0\B9-\BD-2\C4\BD\B7%\8C\BDa\80\94\BC\B6\DE\06=\1A/!=\80d\BD=j\E9(>\B5\98\8F=\82\1F\FF\BD\C16\95\BD:\8A\AD\BD\A5U\E1\BD\9BL\A1:K\A8B=Vx-<\94\9C\83=\1D\8E,\BE\B6\1F\EA\BD\F8\F4\02\BEo\C9\9A\BD\F6c\B0\BD\81\E1\19\BD\AB\02\C1=\1B\A9\16>\8CV+<\F0,j=i\11\AC\BCU\8Df\BD\88l\8F\BD\CEp\00\BC\E9k\BC:\DB\E4\01=\D3R\B9=\DDd\86=\B1\80\18>2\BF\96=\F3\B8=\BC/\14\0F\BD\16\E0\EA\BC{A'\BE\E0\0D\B9\BDl\A5\11\BCs\A9\E2\BD!=\A6\BD\EA\A0\EF\BD}`\8D\BD8\E98\BES\A8x\BD\BBa\17\BE\FF\E8\CD\BC\15\92\E8=\11B0>Dv\B7=\A61\B1\BB\007\05\BCs^K\BD\19k\A1\BD\C3\\\AA<iN\CD\BC\D6l@<[\98\81;\A5p;=C\C8\FB<Q-*=)\93\0D\BDg4g\BC\EA\09\16\BDZ\A8\17\BE,m\18\BEG\09\03=\14W\B3\BD\844\05\BE\C8\8D\11\BE\FA\B9\8F\BC\18\7F%\BC\83\D3\93\BD\EE*1\BE\E9\FF\97<\9Dy\9A=\95\ABR=q\89\DE=\1C\AD\97<\B4\A5f\BD\D6e\9F\BD@c\B1\BDT\CC\D1\BCM\0D\8F\BD\D6\86\E1\BD\DD\BFD\BDF'Y<\AE\B6\11<*\D9R=\A8^|=\9Eg\85\BD\9A\F7\A0=\CA\A5\8F\BD\9F\13'\BE[e<;\83EE\BD\FC\D8\B2\BD\BF\BB\E8=~T\8B=\DD)\92=;E\DC:'\FF\0A\BE\D3\1A\9A=\05m\16>\\j\A8=\EA\9D\CA=\DA\A8\E8=\C3\83!\BCu$\AC<J\BC|<n\84I=Bb\C4<n\DD.\BD\C9OA\BD\C8\E2\CE\BA'\92\E4=\BF\C1\FF=\96y_\BDoV\F8\BCs\FC\CA<Q\88\BC\BD2\1A^\BE\8B\8A\01>\C847>\B9A\7F=c$x>\A5\E8\E7=\B3\FC#>\1Eb\09>'\FB\A2\BC\BA\F4U=\8A2\00>\D9N\A2=\D9\E4u=\02s\C8=\80\04\E0=\A6\EDN=\DF\93\1A=]\0B(>\EBd6>\B7\84\06=\07x.<\8B\8C<=q\1F\0B=b\C4L\BDE\B1!\BE\E0\08\F6\BB\0C\F5\A7<\DE\8A\06\BEs\81\9E\BD\BFC\CC=\D8z \BE\1D\E5>\BEP\8D\E8<\C5\F6\90=\C5\BB7\BD\1E\D3\E7\BD\C9N\92\BD\FF\0D\99<V\96m>\EC\C8\B1>\AF$d=\AF0\80\BDK:$\BE\CF]:\BD\15]\1B<\AF\CC\FD=\E839>\EDCz;&,\BE\BC\80oE\BD\FE\E4^\BE\A8\10\81\BBH$\F6>\C8a\D7>\A5D\EB\BBp\94\8B\BE\EFyG\BE\84\C5\C5\BC_\12r\BE3Zf\BE\9E\F3\05<\C8tn\BDo\95\B5<<\1C\05\BE\C6oZ>W\8Ar>u\17#>\C30\04>\E0\A9\C9=7\CC4>\94\F2\ED= x\8F>\CB\0AG=\E9y\E5\BE\86\C5\F4\BE\BCz^\BEa\F3t>Y\CFh>\F8\F5a>p\D4=>\B7\0D\F5>b\D2\86>V\8A\F1=\00\FA\85=IG\1F\BE\D5\A4H\BD9\F5w>\FBQ\04\BDv\BB&<\9C\05\E9=\80\05\13>\D5<e\BD\BCe)=\81s;\BE$h\04\BD\C9\9F\81>\DA\BF\82>\09\90\1B=\1D\\1=\E3)\EA<*\FE\DB=\1C\AE\95=\FF\BFw=\9DX\96=\E5\A7O\BD\8C\00y\BC/\BA\BE=\EE\DB\88>*>\BD> \BA%>\B6\8C\EB<\E5m\1D>Mt\C9=\1A$\C3\BD\CD\B4w\BC=\CD\13>)\B9\F7=\BD\B5\16=\89Y\E1\BC\9F\91c>F]\A5=\8F\88\13\BE\08K\8D=8\86>>\CDb\04>\E0`\DF=\F6\AF\85=\F0\FCK=\87\9E\D1\BC\86O(\BDtJ\F5<\E9M\DA:\CA7A9\E3\C47>\EE\C5\91=\C3n\8C=T\CA\F7=\DF\A7a>\8B\A7:=\D3R\\\BD\C3\9C\FD=\A1\DD*>M\0E\89\BD\9B\D8\E1=+z\10\BEV\F7\F8\BD\D5\0B\BE\BA\E6\D6\D1<\92\D9\FB:o\EF5\BD\90\D7\22>\A9\F1O>|\16$>\83\E1\AA<\82r><y\8D\A5=2\8C\DD\BB/c\D1\BC\89\CE<=`\D5\22\BAx\93\10<\07\1Eu=fT>\BC4\DF\F2=\C5\02\FD<\F6\C8j>\BFf\0B>\1D^\99<I\FD\B3=\B4=\05>l4K\BDv@\10\BEI\B5\C8:$\19y\BD^\01\B3;\BEl\D0=\91\81\16\BD\0D\83\A0\BD4\C0\0D>_\A4\81\BC\97\F9\92<\91\DA\88\BD+;u\BC\B4\A9?<\02\116\BD[\E6?\BD\0D\8D\8F\BD\A9\04\90<K~\A6\BC\93\A7_\BC\F2)a\BD\0B+H=vo\C0=\95\11N>\995B>\05\FC\18>\FA\F4\22>@K\17>hT\C1\BDu\88\F3<\1A\DA\14=L\F21\BEn\8A\A2<r\F8\AE<\B2\19\A7=\1B\E4\C2\BB\A5\1A}=\D8\B0\E4\BDrV\88\BC\F5\E6$\BD)F\9B\BD\FC8\D9\BD'\95\AC\BC\0A\E9\EB\BC3\E2J\BB\87\DCB=PO\01\BEe\F0@\BC3\0E\9F\BB\A3\0F\C7<j\145=l\E6\1C=\D5&\B0=\BC.\11>p\E4\07>\A4\91\CB\BB\E6&\8A\BD\FD\C1\BC\BD\BD\C9\85\BD1\BDc<\90\C9\F2=\BB,\98<\88D2\BD\B5z\A4:\97\C6\19\BD \D36\BE\EA\9B\ED;<\A0\E9;(@8=- \09\BD\B8\11\D0<\DB\B6\93=_K\CB\BB\7F\E7]=W\B8~=K\E0=<\A17\AF<\BF\BC\1F=\08Rp=M\1DR\BD\B6\D3Q=\9D\F4\87=\ED\B5N=\FD\99\D0=\E0\04m>A\D9\B2=;\B6\E9;\DD\C7\A3>P\D5Y>j\A7\11\BD\C1\D2\A0\BD,m\C1\BC\E3\9D\B1<\DA\90\0E\BE\CD\B7\16=K\11\FF\BC4\CB\12\BD\FF\16\B5=\14\AFK=\B9\B6\AF=Zb%\BD\B1\89T=\16F\C4=\F2\AA\D9;(\C7\06=\E4\89\BF=\ED\FA\F1=A\9B\BD<|\BA\CC=\12|\C5;z4\07=\AA\0C\08>u\00\0A>f\9A\CA=\DFe\BA\BD\ACd{>u}\84=4\C2\0E\BD]\B5\C4\BD\C1\17\00\BD\C2\A0w\BB\98`\D6\BD\92\96\DD<\0Fa\B4\BD\1DN\0B\BE\F0*\AB<s\C5\AE=V\86\CA<\91{d<\B2J\A1=u\0C\C9=JA2<\AC^Z\BD\D1\B4\D1=\18\19\C6=!?l<j\9A\B2=\92Y\0D=s5#<\17\DCo=V((=\08:_\BE\E7\ABX\BD\00\8Bu=\1C\F3>\BC\87\E8Q\BD\E0\C9\BF\BDi\A6\DA\BB\AC\80W;\FD\FBz\BD\91\C4+=\B7\BE,\BE\A8\E1\F6\BD@Y\8B<\10\9C\9B=\B1\F6L=\C6\AA\C3=[\0D@>\DD\22\0B>J\A6\08=2\D1\08\BE\1F\A2\C6=~\13\0B>\9D\22<=\E7{\EA=(\CB@=@)\8F=#2\C9;\BB8v\BD\E6Cf\BE\AB\F6\06\BE\0F\00%\BE\B6\FD\E9\BCP\06n\BE\E7g\96\BD\F4\11\9C<\88(\A0\BDWaI\BD\0E/\91=\B9\BFT\BE8\E4\C6\BD\EA\BDQ<\FE%M\BC\05\DD\B8==x\FE=\0C\D0\0C>\E2ms=\02\C3\88\BC\0D\0D\C5\BD\\\AFx=~S\0B>$A\D8=!\F6b=\F8\ECc={\91j=w\B66=F\7F\C2=\F2\FE\A3\BDJ%1\BE\8D|d\BCy\BF:\BCe\\k\BE\B2a\C6\BD\1A\9D?\BD\EE\D89\BE\06\0C\DD\BD\F4W\A0\BD\BD\96\A9\BE\1B\E5\CA\BD\BB\B0\E3\BD6\8Al=\A9\22\BF=U_\9F=X\81\1C>\1A\E7s=,\E3\87\BC\FF\88y\BD\EE\88\91<\83\B0\C7=\A3\1F0=\C4\AF\A7\BB/]\08=\A0\98\E3<\8C#\A1<\11=\97\BD\11\B3=\BE\B3B/\BE\E8F\1E=j\A1\F3\BD\EEN[\BE\95@\EC\BC\A9U\05\BE]\EAv\BE\FC\C8\FF\BD\E6\0F\02\BE\00g\80\BEp\CE\C5\BDZ\07\CD<Ew\18>\9Aj\9C=\DF\17,>\AF\AA\BD=\E5\C6\90=+\B4\DE=\BE\C2\E4\BD\E3J\C1\BC\CD\B6W=Du\A3=z\EA\E7<\E8\D4\F5<\EB\DF\88<\CE\87\0D\BC\A0\FE\17\BEP\01\06\BE\CF\10\9F\BE\F4\E5\B3<A=\0A\BE\0C\FDm\BEy\88\C7\BD\0E\04\98\BE\C4\9D\BB\BE\82\A9r\BE\D1&m\BE\B6'\8D\BE\22\A1\89\BD~,.=\8A\F5!=\CF\14#=\0CM\D1=\07S\19>f\B6\12=\A5\F3\F2=\FDfO\BD\0E\F5T\BDZ'\DA;\19\F8\0B\BC\A6\D6\E1<\0E\AE\C2;\840\ED\BB\CD\DB\9C\BC\BF\8B\D2\BC\A5\DC,\BD\8A\16 \BE&\A3\80\BE\AF\22\13\BE\C5\DAw\BEB\D8\84\BE\93\B4\D8\BEH\9D\C6\BE)\D6\9D\BE\12]\86\BEg\CD/\BE\B9\94\84\BD&\FB\1B\BD\F2\BE\1D<\12\0A\A1=\9F\D8v=>\E9\90=k\B3m=-\FC+=\E1\B7\\=\09\A4\E0\BC\7F2\FD\BCz\CF\A6\BBHe]\BD\C5\17\DF\BD|\F9\C5\BD\ED\A8g\BA\D9{\DA=Wn\E7<\AF\83\80\BE\F9A\C4\BDT\89=>Vl5=\1A=\18\BD\06JQ\BE\D8\9A\92\BE\A3\85j\BE\8B\83\9F\BE\93a\F4\BD>FJ=\F4\D6\B7=+\E7\CF=\D3\AE\01>\A4\E1A=z\E9\D7=W^\8C=\F1Y\F3=\84j\07\BB:x\1B\BD3X\9F\BD\D7\D8\AA\BD>y\E7\BD\0A\C4\BB\BA\CD\97\EC;\E8\D0I=\11\86\C5=)N\B1=\88s\00\BE\0F\E3\8C=\0Ed\C2>6j#>Xm\FA\BCa\FB\95\BEE\A3\97\BEo\83h\BE\0C\B6\17\BE\FEi\A1\BC\EBu\BF=\BF\FE\B0=\F7~\B0=\BE\81\FC=A\BA\82=\BA\03R=\03\7F\BD<2\ABe<\B4SA=\A1\99'\BD\\2\C3\BC\86\C4%\BC\F4\B6~\BD\1A1\9C\BD\9D\C0\85\BDCj0\BC\B3\F4\C3<\11\AB.>5\E4\C0<zn$>\A2?\A3>?\8Az>~\FDW<<\08\89\BE\12E\86\BE\AE\B8-\BE\E8\19\CC\BD\A3\B4\F1\BC\FAl\1A=ut\EF<\F8\F3\86=\8B\B9\F9=`\02\0C>O\EF\B2=R\15\FC<\C3q\8F=\DB!\83=\AB]\82\BDzW\B2\BD\D1\B9P\BD\806\F5\BD!\E1\F2\BD~\F1\CA\BDDPH=\A5c\89=4\EF\C8=0\99\18<7e\EC=7{\B0>Y]\90>\B1C\A7\BB\89\1D\88\BEZ\A2v\BEL\7F\9D\BDzI\86<\FE\D8\AE;\9C4J=\ED\9D\87;e\C6\04=\F3\D7\82=\C1\C3\E2<\FF\E7<\BCpR\8B=\BB\0C;=\98\13^=:^,=\DB\B6c<\A0\B96\BD1\D2\E4\BD\FB\EF\C9\BCs\A2(\BD\B5\FFP=\B1\91\A3=\BA\8B\83\BC\\V\09\BE\87l\9E=\1B\F8\85>G\AC\0B> \B1\90\BDs\0BP\BEJ\F7X\BE\E6\04\AC\BD\15\EF#=\BC\F8\16\BCE\D9\FA<.6\C5=\16\A9l=\A9\99z<?\ED\82\BB\16\AB\0E\BD\96\F7\1E\BD\95\AD\86\BD\97o\08\BD#\91\AC=p\C4\\=\B4\E5\B8\BD\A9 \E2\BDK\B7\E4\BC\E7\C6\83=\CDA\10>\A7\D5\1C>\B7r\0F\BE\\!\88\BC/\\\AC=\AFP)>6\05 >NW\D2\BD}\09\83\BE\F2\84c\BE1c`\BE\A4\CBq<\B1h)=\1A\94\D2=G\D4\F9=\9C\CF\BA<=~\B2=\FC\D2\1B;\80\DB\CA\BBw\E7\8A\BD\BE\AFW\BD\EB\A3\8E\BDq\B2\8B=Q\8E\8E=PY\B8\BD\AF\84\8F\BD\9D\F9\AF\BDo\9F\C1=\11\0C*>\EC/_=/\017;\AC\05\A1\BCa\94\1B<\98wG>M\D4\F6=\E8\06\1A\BE4\C2\A9\BE\C6\18\8F\BE\B9:\81\BD\A9N\B4=\E0\80\8F<-kJ<Qx\D6=\F7r\A6=\FCq\00>\8A\0F\06<\85C\17\BEj\B6\FB\BD\DCVu\BD\84\FE\CD\BDB\9D\02\BD\02\BD\B9=\CB\94U\BCQ\84'\BE\86V\D2\BDC(\B7=\F3\\\15>\E4\04\F8=I\95+=\B0\B0\BC;\CE\F1\B0=J\C7\F8=\C6\F2\0E=h\9Dz\BE\F7\D4\BA\BE\0C\AEK\BEDwz\BDg\E7\D0=Q\8F\DB<]S\D0<bs\04>\1DuD=B\84\8F=\F5 \AB\BC\CE\01\C8\BD-\22\F1\BD\B0\15\B7\BD\A2\C8\D4\BDL\BD\C3\BD\0Fx\9C=s;2\BDT\10:\BE\87\CBG\BE\96\A4\C1\BD>$\84\BDE\FF+=|M!=\22N\A0;\B5\EC\A7=\02\E6\F7=\FC\E0\9E\BD\80\F91\BE#\D2`\BE\ABx\8E\BD\ADav=\93\00\EB=\8D5,\BDF\94\09\BD=\85\11={\B0Z=\84\0Bi<O\19\89=\09\A0\B0\BD1H\B5\BD\F4|\A8\BD\9C8\9C\BD\F4'y\BC!3B>\11\CC\92\BB6\A7c\BD\8C\0Bb\BE\1B%\F8\BD\0D\97\9E\BD\0E\82\0E\BC\CE\88\F6=|a\1E>*\EE\C3=\D6\E9\E0\BC\F0t\0F\BE\BD78\BE\B2\EAd\BD\C5\C6\AF=7\98D>\00\A3\1A>0\8C\B5\BC`\F5\99\BC\8E(\D6\BC\09\B6\A4<\B1G\A2=\E9Qu<\E6\80&<9\EC\19\BB\0E5\84\BD\85a\E6\BD,^\0F\BD\99\B8\0A>.\ECK<\86\8C\99\BD!\16\80\BEl2\82\BE\84\EF\CE\BD?l;<F\D8\C3=dM<\BE\E0\AB\AF\BD\CA\D0\F0\BDWgj\BEZx\99\BEW\8F\A2\BD\\-\E0=\D837>\8A;\B7=\FF\05}\BD\A3q\8F<&G\A9\BB\04\9B\17\BCX\A5\07>\82J\FE=\F5\CC\A6<t\18\91\BCO\C2\02\BE#\D9/\BE\A1\D3I\BBSI\96=\BBg\A0=\BC\BC\BA\BC\9El\92\BE\C8\E9z\BE\CE\ED\9E\BD\819\AA;\8A\8D_\BD\99\CA3\BE\E1in\BE\B2\F9\85\BE\C4\B5\C1\BEm\06\97\BEw\CB'\BE8x\A0=\8BH'>\98\89w=\0CD\DE\BDp\FA\DB\BC\17N\C7=\B8Hc=x\90%>\C9\09\0F>\B9\05\9C=\E57G=\C2\A0\90\BB\CEl\0C\BE\D9',\BE\9A)\BB=e\06\16>\E0sL='\9AR\BER\D3:\BEz\9F>\BE\C6\01\9A=+\BFJ>v\A9\A2\BD>\80Q\BE\1A\E5\A0\BE\FE\84\CD\BE\CF\92\B5\BE\93\CD\94\BE\06%\B0\BD\9F\FC\D2=0P\C0\BC\1CX\B5=\1F\CC\AB;\FB\7F>=%hN=\F1\99\82>I\A1p>\DA\90\E5<JjA=\E4\C5\9F=\F4D\A9\BD\A7$\05\BD\BE\D2\84>\ECX[\BDr\CF\12\BD\CB\DF~\BE\09\BEX\BE\B8,g\BE\8A\DA.=\F0)\88='\FC:>\B1\85\C1<N\09\8F\BE\F4\1Aw\BD\05\B0o\BE\B4F`\BEQ\DC%>\FD\05\18>S\A7\C8\BD_A\86>{8\DF>\DC\8C\12=\D2\A1\B0\BE\FDO\9E\BE\ED\15\95\BE}\AA\8D\BE\84\D42\BCw\CD\99>\\\CB7>K\04\E8\BD\86g\80\BE\93V\A7\BD\BD\FA\E1\BD\D1\AE\B9\BE\D5L\A6\BE<\01\91\BE\95\AD\A8\BE0\B9\0E=0\C4^\BD\9A\C7\F6\BD\90\058\BE<\09\7F\BE\0A\7F\93\BE\C4\EF\01;\04\0D\07>3LR\BD\82\A7\B7=\86o\B6>\7F\DE\C7=\F2\F2\1D\BE\E4\F3v\BD\CE\DE\B7\BC\7F\FA\A2<P\E6\08\BD\B3\88\94\BD\B8\00\94\BC\F0\98d>\B9\D7;>-\09\D0\BD\AF\EF\81\BD\ABo\B1=\09Ls\BE\DB\D6\0D\BF\DE\D9}\BE[\1D\91\BE<\F2-\BE8P\FD\BCs@\B3\BD\D5\E3D\BE\93\10\F7\BE:\18M\BEq\FCy>\F8P\8B>\03\B1\84>)\B3O=\A5\A5\DF=\F6:B=\EC8x\BD\09\FC\11\BE\B3g\F3\BD\E2a\13\BE\E7\ACE\BE\11~\CC\BD\1Cj\88=\E9\81D=t\82\C6=\12\C2\8E>\C1G\03>\83\B4Q=F\8Bb\BD_\B2\C8\BEG\1D\DD\BE?j\8F\BE\D4\A6i\BE6\DC\14\BD\D3^\14\BD\84\FF\0E\BE\99\B7\97\BE\B8R*>f\E7x>ecv>\94\9CM>\A8A\B2=k\EDd=D\9A\\=\FD\E6\8A<\0D\AE\A1\BDC\1EL\BE\B7e?\BE\86:X\BEd0\CF\BD\91\BD-=\DEaz=mw\1D=\B5\9B\E2=s\E70>b\C9+>\D6\DB~<Vb\92\BE\9C\D0\CD\BE\A53H\BE\E9\92\80\BE\8C\9A\AC\BD\E5\D1\D5\BD\BE\FA\CD\BD\8B\E9\A6\BD}o\82>\8B\F1\A0=\A2pe>\EA\E5Q>i\10\C9=\12\05\ED<\D6\B9\C5;\E4\9Fx\BC#\FF\16\BE)\08?\BE\EA[2\BE\BD\1B>\BEQ\B6\F8\BD\16\EE\08=\9F\11#=\14~_\BC?\F4\DF=\AD \02>\D1\AE\A6=\8EC\19>\9Ek\97\BE\EC=\E1\BEAW\D0\BE\99\09=\BE\9D$\C6\BD\1D\FD\A7\BD\95\B29\BE\DCyA>\C8\A5\9F=rm\AE=\D1\F4[>\06\FC\01>\0F\85t=-\83\0E\BCo\04F<D\EF\8C\BDZ\B5+\BE~\B2\8C\BE\87\99x\BE\C0m\09\BEOP!\BEU\00N\BDXLA=\F4Z2=\E2e\98=\1E\1B\1D>\F7\84\EC=L\D5\B7=q'm\BE\90\FE\DF\BE\04\12\BA\BE}\0F\17\BE\01\0A\C5\BB_\0D\B5\BD\AE\9B\F7\BDT\B8\01>\C3u\B7\BD{p\99=(\A1\11>\7F#+>\06\D1\AC:\04\D3%;\9F\AB^<\EFq\E8\BDz\E3\90\BDTHm\BE2\81\87\BEy}\04\BE\AF\BA\86\BD\E2&\03=\0D\A4\E6=\1F\D5\03<O\99\0C>\C5\01\D2=\0Eb\F9=f\13\89\BD(>\89\BE\D9\9B\04\BFT\EE\1B\BF$\FC\BB\BEl\05\89=<r\1B\BDAp%\BD`\05Y\BD\DB\03\B9\BD\A98\B3=\A3a\B8=\7F\AC\08>z\02\9D=\F4\A2\E1<\EE\84\A1=\E8\EF\AF\BD\C9C\FC\BD<^\84\BE]H\87\BE\7F\22I\BE;/\08\BE)(W\BD(\09D=G\A8\86=\C4\D0\16>\AE\87y=0\85\DB<\F2\C9&\BE\AEe\B7\BEh\CF\AA\BE\92\D3\E8\BE\02\D2\AB\BE\A2d?>\A8\93\01\BD\F6\DB\08\BEQ:H\BEn\FB\BA\BD\0F\9C\8D=\1A\96\C6<\1D\8D\0A>5\A6\BA=H\E2\CF<\B1\07\81\BC\13\D4\EA\BD6\F7\CE\BD\8D\17F\BE\B8\D3\87\BE\16\E0I\BE\E5\C1\AC\BD\BE\09\04=\A2\CA\84\BB?Z\9A=\14\C7\07>d\1D\06>Zjq;\08rO\BE\02\BAT\BEF\BD$\BE\A6\AB\0C\BEv\C8\F7=]\93\8B>\B2X\B4\BBK\AF\9E\BDU\06\AF\BCL\80\07\BEs\98\22=\B5,B=C]`=\D5\AF\0C>L\0B9\BD\EC>\C3\BC \1F\B8;\D9:\12\BDF\E2l\BE\A7\97\9A\BEG\DAH\BE\DF|\E6<\DC4\EE=\89\8Ex\BD@[m\BD\C1\F0O\BB\82D\C5<x\99\D8\BDK\CDI\BE\99'O\BE\87,\A4\BDL\06\16\BE\FEMz=\E2#\9F>\AA\8E\19\BC&\A6\D5\BD\F0Y\FC\BD\F8u\02\BE\C8\9B'\BC7\FD==\92N\AD<J\1D\B1\BCswK\BE\B3\FC-\BDi\B0\CA<@\F6\AC\BCwX&\BE\8E\903\BE.w\FA\BD\D1\D2,\BDyf\9F=\18\E55\BE\95\B7\0C\BE\F6\92\B9\BD\E1\C1\C7\BD\9E\22\1F\BD\AC1>\BE\BE\C3\0F\BEt}\D3\BD\AB!,\BE\E4\14\E7\BD&\BEj>\96\99\00\BC\82\ECU\BD\F6\A3\80\BB\13\96\B2\BDu\AA+\BCr)\03=f#Z\BC]='\BD\03\D6A\BEE\07e=\C0\CF\9D=v39<\F9f\CD\BD\04\DF\9A\BD\D1n\0C\BEz\CEQ\BC\89\F7Z=\E8\F8\02\BE\CFa\04\BE;~\92\BC\82\1B$<\BA\0E{<_\87 \BEv\8B\90\BD;\9F\CF;\0C\C5\0B=mu\D5=*\0DJ>f\D2\04\BDb\08^=\F6\C7\F3\BC\98\01\FF\BDq-{\BD\E2\A8\D0\BB\A1\F24\BC.9\A8\BD<\98=\BE\9B\84\9A=\D50F=\17\A3%\BD\8Cv\D5\BCnMF\BD\A1\9FU\BD\CE\EA\81<\D0\84\8E=\9A]\96\BD\EE\A1\EF\BDt[\A3\BD\13\0Am=\B1T\13\BD\83\91\EA\BD\0F\C13\BD\B9\D9\81=t\F4/>\1E\A3[>\00\8A\F5=+\1D <\CD\E3\C5=]\9B\81=\DF\CD\91\BD\01\A3X\BD\FC(\10=\9A\AE\C0\BB\AE\1A \BC\90<\8C\BD\09\19\13>*\932=}B\AA=\BEP\DD\BB\06u\84\BB\14\7F\02\BC\C2E\B3=uI\04\BC\CD+\09=y\1D.<=d\B2\BD}\B6\EF=\90\AA\D9<\03\D3$=\CA\F6\AB\BC;J\8B=\0D\DC\09;\BC\BA+<4\C6\94\BD\AB\81D=\FD\B6K>\B11\C1=\A3\A6\FA<)7\1F<q\84\A8=\86\1F\EE<*\CB\AD<\E1v8\BDa\A2>=%e\22=J\1C\93=?h\91\BC\939\84\BD\19\A4r<\15\14\94=\B4\DE\\<\16\81E<\C8\EA\FA<.\EC'\BE\ED\C1<=\DE\C5\07=L\FC\8B<>\D9<=\90\E6\C3=X\EBr;q\C9\B7\BD+\B1A>\86\94\C6=\0F\D5\ED\BB\0E\09\C6<\\r\92\BD\BA\B9\8E\BD\1F\A2q<G\A2\1C\BDU\0D\E0<C}\0B<\0F\A0\9E=\C3j\A8=\E4\9C =\EE\82\F4<\1C~n=\92\B0B=4\D9\81=\8C(\7F=c0\84=X\CF\AE\BC\16p\EC\BD\B3\9A\15=X\17\80=\AF\82\C6=\BE\08?=\10\80\C5=\CB\8A\13=\95\D3\8C\BE\FA\ED\B9>7\F2\92=0V\07\BE\BE\BEz\BD\B6)t\BD\BC\D5r\BC\8F\AF\F5;E{\ED\BD\1F\D1\92\BD)\BFD=\93\0Aa=\0B\E5\B0<mt\B2=f\E7\C8=\07\9C\82=\98\12\F2;V\92g=N7\80=l1H=\B0ES=:\F6 \BD\11\19\A8;\C7\E5\B7<@\C9\C3=\96\11\97=hW\8F=T\038=\1F\DB\F0\BD\86\0CG>\DClc=\EA\C5\C7\BC\9F\9Db\BD\13\13x\BC\8C\FC\9E<CM\BF\BC]iy\BD\AE\C5\B8\BD\FE\80\90<\AC3\DB=\A2-\9D=\E2'\A2=\04\C2\B9=\A0\B7\AB=\DF\CC\C4<:\13\1E=\EF/4=\CA\03\CC=A\0De\BC\1Cu\85\BD\D7\CD\AC<J\8E\D6=2\09\C6=!\EB\0A>\AC-5<r-\13=\96n\F6\BC\B4Q\18>\22I\10>L\0D\D2;`\96.\BD\A1dM=\08F==b\D7\8D\BC\99\9D\03\BD\14\9C\D7\BD\FC/\9B=\C1\E2\EA=\E1\8F\1C<\0A\13j=\C5\0B\B5=BZ<>qZ\91=\08\E2\9E=W\9C\BF=\C0\AF\09>\D8\E2p=\83\7F~<\02L\93=3U\9D=`\9F\0B=\B6x\B3=\C7\A4\E7\BC\16$\8C=\94]\22>\C0#\B7=\9E\0C\11>\04\EF\A6\BD\81\22f<uE\F4<h\93\A5\BB+\C89\BD&\1E\1C\BEg\0AO\BEdr\A1=\D0\0FE<\ADe\1F<4=\98=Z\D5\90=\BF}\03>\EC\99\A2=T\84\B3=\9A\040>:\F8\0E>\8Dk\A0=Dx\22\BE\AD2\01=\81\B8z=\B6\F8a=:?,=\EBA\9C\BD\0D\11\8D=\98F\C7>?\BAn>w\03\E4=I?H=\EE\19\95;\18\F2 =}\8A\A3\BB\CA\C4\A8\BD\EC\FEV\BE#\D0y\BE\0D\95\BD=\D7\B7\88=\B0\11\99<\0A\A3\D3<\C2\C1\02=\BAh\11>\80$,>\A5\F8\11>^\15\85>\06\BC{>\9E|\E8<\09iX\BE\C7\EA\EC\BD\93\8A\CB<\F0I\AD=\AC'\90=\97\D1\0D\BE:R\D7\BC\ADe\AF=-\AD'>\DB\A6\A4=v^\BA=\00\87B= \82\CA<\D7{m\BC|\0A\8A\BD\E3\DA\AB\BE\89|B\BE\86\D1\B9=h\09d=\C5!\DC:m4\C7\BC\0B\FB\CD=\17\13G>\0C\EC\F5=>\06R>\99$s>+1\86>[\11\E1=\C6\9C\A5\BE<b\02\BE\EF*\0A=\CD.\F9<\D8?\ED\BC\1B_(\BE\A4\84\A0\BB\EA\02\A7=\AA\B6\D9\BD\FA\0E\93=\16\E8\F4<o9\CF<J\8E\A4=\E1\E1\D8<m)L\BD\856\AA\BE}9A\BE\C3\C4\B7=fw\B6;-\96\DE<9wV=~\93\08>\D6\A1^>\02\11V>\97ia>\CA+_>\16\18y>\1D\8A\F4=\CF\EEA\BE\E7\FA\FC\BD\DA\F3?=*\87\9F=\14\22\AD=\06\D6\D5\BD\CA{D\BD\8B-\EE\BC%%/\BEZ\D12;8i\ED\BD\1DK'=:!\22=\01\F4\D0=\A1\C1\F9\BCAb\9D\BE\00\F2*\BE\EA;\D7<\D5E\A6\BC\1B\7F\FB\BBI [=\AE\81\02>\B4\F60>k\CE\EC=Le >\DE\8B\F5=P\E2\05>u\07h=\1C\CD.\BE7y\14\BEr <=N\A10=YY\FA\BB(\89\10\BE\00\F9\E8\BD\B9\0C\95<~\AB0\BE\CA,J\BE\EC\A0\04\BEO\E4\17=4!\F9\BB\\+\9D=\95\A8\98\BC\E9k\C9\BE\FD\F9.\BE\08\C7q<\E5\E2J\BD^\99j\BCwj\87<\15m\90=\07\8B\12>\BA\81\B3<\92Y\B5=\AFD\B7=\8C\18\B7=\83\A8<=B'J\BD\0D\C5\E5\BD\12\18\13>w\\&=k2J=\92\93\01=\E7\D0\E7\BB\F6\1A\86\BC/C\13>yRE\BDW\C7\14\BD\BFj\82\BD_\8FX\BC;\09)>3@\00<\E54\BB\BE\16\1C\1D\BC\1E%\0D=\13\D31=\CA,\E9<\91\8A\DE\BC\1C(\96=\0A\F5*>W\BBG=\DE\1B\A3=\A0\7Ft=C,\D0=\C8\9E\D8={\D3!\BEe\C4\1F\BE\8A\08\1B>\FF\E7\1B>n\A8)\BD\A3\DB\D3=;\C3\89<\AD\97t>\B6\C8_>\AB[U=m\98\8F\BC\8Bi$\BE\10\B7\91\BD\7F\8Aj>\932~=zE\A1\BE\ED\FCA=\10\7F\F4\BA\F2\0A\0B\BD\B4*\8C;\F7\0DK\BD\E7\AB[=\AEVD>h\8E\94<U\02\83<W@\B7=\FD\AC?=XM#=j\01\E1\BD\FAI\06<\B5o?>5\F4\C0=\F5Cc\BD\C4i(\BCg\B4\9D\BD\E9]\12>\B6\A3\0D\BD\F5\AF\DD<`\A8F;CB\1A</8]=\C8<\A5=~\E1\C9=&\96x\BE\BDD\06>\1F\01\F2=N\8C\11=\B5\96\BF\BD\1F&`\BE\0Eq\85\BDR&\B0\BD\E9\BA\86\BE#O\DF\BDJ\1CK=\B6\8BR>\B5y\9D>e{\18>\1C\8D\86=y\D5\DD=R\E2\C9;\7F\8Aj=\D3\85I\BD\E1\98<\BE\7F\1B\C1=\F1\E8\09=\F2#\E6=\F2\00\EA\BC\06XB\BC\11\9B\D8<8\F7\C0<\AD\EFQ>\E6\FA\A7\BD\AC\B0D\BE\\\E3\FE\BD\C6\BC\F7\BEq\9F\98\BE\90\F2)=\\\22\99:\AB\AAr\BDs\F6\89=\B2\8F\D9\BD1\F5\15\BD\03^1\BE'\D8\AC\BE]\8E\14\BF#<\C8\BE\08\97\91\BEB\86\08\BC\C9\B6\BD=w\F8\87\BC\ACr+\BE\F3\0B\DC=g\C7?<\EF\D3\80=.\F6-=\AF\C6\83\BCK)H=\8EG\C3=L\AE\9F>\C7ZQ\BE\03\C8\83\BE\16\F2\10\BEg\84F\BE\DA|\0B\BC\97^)\BDQ\DA\16\BCT7\92\BC\9D\94^\BD\A5\C0\FC\BD\D8/\B7\BD\EDh_\BD\B1A\0B\BE6\05\B3\BE\0EY\9F\BD\C9\E2\F0=\C5=\8D=\7F^\92=\E7\91\10>\90\C1K>7\C9\85\BC\CF\8C\B3=<\1D6\BB\DCt\04<\9B\EF\00\BEW'\EE\BD\84+[\BEe\86\87\BE\FE1\99\BE\C6\94k\BE\EC\C3\1E\BE\0Am-\BE\B4\E2.=\11\C9\93\BD\D9\E3\E4\BC\96C\82:\AB|\81\BD\DA\80\19\BDx\B5\9B\BDr\C9\0E\BD \19\AB\BDD\D0\DA\BE\DC\8E\A3\BE\83N\AD\BD\A1\BD1>dK>=<\A4\B3\BC\7F\AB\C9=Qe\90=\15\F9\DD\BC.\D7M\BB\AAe\A5=\F5\D1\F5\BDF\B6\82\BE\AF\E9\EE\BE\C1c\D2\BE\B0\A7\8E\BEZO\81\BE\82\A5;\BE\\\E4}\BD\22M\0B>\A5i\BB\BD\E6\EBO\BC\BC\1D\D5\BC7_~\BBXeB=:N\E9<\13A\AB\BD\C7\D7\D1\BD\1Eh\A5\BE\A3\83\D0\BE\D0.\83\BE\9AA\C5\BD\1BO\0C>\91\DA\AE=\A6.D>t=\0E>Wb\89\BDM\FD\9C<\CD\FF;\BD&:\0C\BEk\9F\A8\BE\ECR\E3\BEkn\87\BE!\CFa\BEj\A7&\BE\04\FB\88\BE\8B\8E\00>\0A/\90>tZ4>\E0\B6\AA=\D3\D2\BF=\8A\1B\D6=\9BZp>bo\06>\F5N\12\BD\FA\88\12\BE\A2\AAM\BE\FD)\9B\BEEJG\BE\BE\D8\0E\BE`\22\18\BD\0F\BCr;\AD\93\12>c\\\C2\BDT\F9\0E>\AF\D2\B3=F\FA\1A\BBz\1B\C2\BD\FA\A1\A4\BE\E9\DF\A3\BE\81\F6f\BE\07\E8i\BE&\81i\BE\DE\1E\9D\BD;\F97>\18\13=>\A65\08>\B9/\1B>'\EC\A9=\05\CA\D9=\BBO >\F8)\CB=\B2e\04\BD]\C4\1B\BE\8CwH\BE\E4\8F\87\BE\BB4\FF\BD\D5X#\BE\FE\89e\BD\C45\9A=\98 \FD=V\04+>\97,\10>\83!c\BD]\C6\A9\BD\05\1E\0A\BEi\13\CD\BE\9F\9A\82\BEO+\7F\BE\CAE\8D\BE1\EEF\BE\90\D68\BC\8F\8FS>\89H\01>\00\E4\10>\FD\FA\81=\8F\1F\86<\F1W\D0\BDZ\15\CE=\E9SI<<\12\D4=a\8F\B2;\091\1A\BE&\D0@\BE\D7\B9\0E\BE\0CWX\BE\BE\80?\BD\F7{\DF\BD\E6\FD\93\BE\1B\8B\B1\BDP\\\C1=\C2\C7F\BE^\FF\02\BE\EB8D\BEl\0A\9E\BE\0F\B7\F1\BD\85L\1A\BE@\9Fi\BE\F3\9E\B6\BEe]\DA\BChu;>7\F2;>^\CF\19>E\E9~=IM\B6;Y\E0\C5\BC\CA^\DB=T\A73=\11\AB?=\92\EA\99\BD\22\BD*\BE\19\AA%\BE\89\980\BE\13\F73\BE\0C\02$\BE\94^n\BEN\84L\BE\DB\D4y\BEX\EC\09>\0F\14\C5\BD\83\E4\96\BD\09}\E5\BD\FF\1D3\BE\BB\BC\D7:\9Dd\85\BD6\1Ah\BE\E7\F8\CD\BE%\03\EA\BD\00E:=\0B\97\14>k\8F\19\BCa\1E>=\8C\22`\BDvA\0A\BE\9F\11\98\BD\92\0C\0A\BE\EAP\D4\BDzc\1B\BE\A53\1A\BE}&\04\BE\91\A0\BB\BD\09\87\1A\BE\05\1D\13\BE8\16\F9\BDj\A45\BD\11\9E\1E>\A6\F5&>\0C\DB\8B<m\EA\AA\BD\C3\E9#\BDt\9A\1D\BE\0E\8CJ=\18\BB\85\BDXm)\BEm8\84\BE\0C17\BE\EC\89\C1\BC\22\8E\90=\FEu\1B;/\90a<G\FBQ\BDSs\E7\BDO0\8E\BDR\F6v\BE\E5\FDc\BE\C5\F8~\BE\88\0B\FC\BD\9F_\05\BE\E1\A1\82\BD\CF6\80\BD6\B66\BE\BB\F0\DD\BD\D0IM\BD\C0o\17>\0A\0D\FB=\F9\D1\A1\BC\E2\04\B4\BD1\07\E0\BD\CDW\84<\B4\04B=\C6\16A=*)\FC\BC\BA;\E4\BC@\CD\B8\BDpY\EA<.\F1\FB=\13\BA\D9=\D9\00\1B<\B3F\9F\BD\8A\E6\15\BED\D6\B3\BD\ADI\A9\BDL\848\BE\D0#\22\BE\10\E9\03\BEZ[\0B\BE\C5^\90\BD\CB\16\E2\BCi#\98\BD\95\FF)\BD\86''\BD\FC\E7)>\0C\C4X>\D9o\1F<MZ\FE\BD\FA\C6\FB\BD*\A5~=&\E2\B4=\1D7d= \0B\93=\F3o\93=f%4\BD&\18\0E>\CB\EAG>\E3.\CE9_8\88\BD\0D\B0\BE\BB\B9\B2\D4\BD%\11\B2\BD5M\E4\BC\8BZ\8D\BD\A4\AA\B7\BD}\B2\AB\BD\05\B5\9E\BC\9A#K\BC\89\97\F3=n+\88=%\14\B6=q_L>\FE\C6\A3>\A3\1E|>,p!>\AB\1A\AD<\98m\11\BE\E2\B1\9A=\0F\823>\EF\CD\94<\A4\B1\94=\D2}\FC=\CC}W<>\D4\D3=b\A7\A3=p\CD5\BD\84j\9D\BC8\D9\94\BD9\17/\BD\CF\A4\88\BD#1=\BD\AFi\00\BC\01\8Cu\BDg\85\1A=\07*\EE\BC\0A%Q<\0D\DF\\>o0\E6=\1CC!>~2\9B>^\08\9E>\96\0A\8E>>\F0\8C=\11\93\A1\BB\18 \F6\BD\CD\F6\10>,8U>\BA\0A\8E=\8FTX>\8Fl\87>\9B*\D9=U\17\8F=Jd\FA<\98\9Bg\BC\CD\E1M=\F9\B6y=\FA\83L\BD?\D4\9F\BD\C3\22\BD\BDwK{=\9Co\90=\9E\86\18>j.3=/4^<\98\91;>_M\88=y\0C+>C'#>\A5\1F4>j\DEi=\D7O;>o\0FC\BDVP]\BD\AA\A6y>9\A9\89>\E6\D2\BD=\0B\12\8E>\01S\97>\0EC\D6=\F6t\0D>\FE/\E5=\F3\DD\B1=h+\C6=\0D\CB\FB<\BFj\09\BD\A3\D1/<<\\\B3\BC\8F\B3\AF;\F9:e=\8EC\B3=\AFxQ\BC\BDf\82=Q\80]>i\AF\09>\A1\88\9B=\F1\08\A8<\FB\86N\BD\D1\EA\D4=\E6\EBY\BB\D0\F9\AA\BE)\FF}\BE\E2\A8q<.\9D\B8=35\C1<\A2\\y>r\E3\8E>\F3Y\1F>\B1\C0M=\F31\07\BB\C4X\98\BB,\D0\DD=\08;n=\BD\C2\8A\BC\82O\96<\EB\CA\B5<!\FDi=\E8#\B2=\BA\F0\E6=`\F2\BC=H\05\CC=\0D0\02>\BD\CE5=\9B\D1\F1<<\82\19\BDo\B2Y\BE\AE\B2\AE>\84\FF\AA\BD\E5\E1\C7\BE\88\08\83\BE\A2Gb<\A0DI>\95\DD\EA=\EC\90Q>\13\A2\C8=3\8A\B8=\A4\E7\86==\C5\E6<*\10=\BC\9A\96\94<i\EF\94=Mk\90\BD\EA\8E\9C\BA\98\CA0=\E4\FD\FE<`\A0P>\A7\BD\ED=xh\CF=B\BF\A4\BB\8A\14\00>\D9\E9\\=\A9\13\BF<\AD\92\F0\BC\F7\EA5\BEU_\D7=\C4\A2\BA\BC\BF\CE\85\BEw\C7c\BExq\09=\0Dc$>\8B\F6\C8=\BAd >\1C\03K=x\02\88=y\9F~<\D9\0E\D3=\F1\D1\82\BC\B9z\1E<\9E\CCU:\F7\91d\BD\11r\B6<\BFQ\DF\BC>l\C3;\C9\1Ae>\9FT==y\\\AA=\D4\050\BCx\1A\CE=\DD\82\DF=$D\99<\9D\D0~\BD`\F3\A7\BD\DB*\AF=\99`\D1\BC\BC\C5p\BE\B4r<\BEpe\1D\BC\C0o\13>kY\C8=\FB\A8%>#\AC\C9<\90\02\8C=N\D3\DD\BC\F7H\1B<(\A1z=k\04\B1=\EAT\D4=\FF>\DD\BC\D0k\8D\BC-\B5\A3\BC\E3\F2&\BB\85\BA*>\84\D0\FC<\\6\B0=\9A\95j=\FA2\D4\BA\83\0B\8A\BB\CAB8=\91\EF\F6\BC\E2\F0\87<\19\ED\B4=\9B\E4\96=1c\03\BE\BF\CD\CB\BD\FAP\13=\E4t\17>\D79\88=2%\A9=@\E4\1C>\A9}\1C;/\0F\03\BD\D9\C2{\BB\D2\B5Z;?/\14=\C1\12\1A>`q\C0;\0A\0Ax<\9F\80\02=\B7\C5W\BC\9262>\C4\E9k=@A\0B=\11Iw=\A8}\A1<\A9\C2j\BD9\F5m\BD\A5C\08\BE\14X\83>RO\FD=\D7I6>E\EC7\BD\96\B1\7F\BD\D1%\E6=8hU>\E5\93\A8=T\831>\BED\17>(\C8\8C\BC]5\E4\BD\CBp\08\BD\B8\0Aa\BD\AA\E0\B1\BB\B6\D2\BB=o\E3|\BD\DD/\A1=\98\F5\D8=\BB\A0z<}\9Cw=n\80\94\BCv\92\97<\A6\C0\D6:\D3\99\16=u\01\F5\BD\FC\E8\BD\BD\CC\93]\BDt\FF\CB=\15\BE\05>\D1\105>i\15\1D=\1B\8C\1E\BD\D0\12\A3<.f'>\A55\91=\1B\E4\08>g\F8\02>xqi\BDxI\93\BDQ\1F\84\BDUH\F2\BD\BEjY\BD\F0#\EC=\86\A6\19\BD\8C\0F\F0<\E9on=\02b\86<O,?=\82\DA\01\BE\87x-\BD\89\AA_=F\05\CA<o^\F8\BD\8A\D7\8D\BD\D1\F7\DA\BA\C3)?=\1C\09=>\BD\05\FD=J\B4\9F<\8E\F8m9\17\81\DD=E\A8;>\C9\7F\8E=f\98\C8=\9D\B4\FE=\CC[\07\BB\FFW.<x\8B\91\BD\C8E\0C\BEw\E7T\BD\FF\F9\1F>\F1K\17\BD\D0\8C\A3=|\DE6=\BD\1E)=\15\EF\1A>#k:\BCSbw\BC\E1}\0A=\D4]T=0\7F\1B\BD\E8\BE\9D\BD\E2\C9\A6\BC\1C\C6\EF;\18\86\EA<\D4O9=\C9=\BD\BB-\FB\\<8\CA\1E>\CE\10\F9=h\8E =\FB\C2\01>\B2=\22>Q\97\AB<.\BB#\BD6W\AB\BC\B5\84!\BE\B2h\C0\BD+\A0\C8<,|\EA\BA\8C\16\17\BDa\01\E4\BC\1F\00\FF\BC\C8\89\84=\11\B0\90\BD\B8,\C1\BC\87\B7\8F\BB\DB\92\7F<\0C\03\0F=\99\84\FB\BC\E3\EF4;7\B2\AD\BC\7F\1D\CF\BC\C1R\ED;\DD}\0A=]-\7F=*\DFE>\DD\9D\D7=\89\CD\90=dAm>z\F4\01>|N$\BD\B1\C9i=\94\DF\0D=k\89@\BD''?\BD\84 b=\A5\F0\A3\BD\A3%\19\BDS\896\BD?\15\B5\BC\AF\1El\BD\1F\98Q<{\C6\02>\09&\88=RO\00>\A3\19`>\09\F3\AF=^\A5\DA\BB/i\C5\BD(~d=\B0\F3\02>\BF\11\F7;\E4\92\1A>p\A4\9B>I\D9,>\04\AB\F3=[\FD\8C>T!y=\AFn\0B\BEW(\C3<oU\EE\BC\D8\03\CF\BD@J\B0\BD\98u\96<zu9\BE\E3\A7N\BD\14j\BF\BD(\F4\13\BE\DAHy\BD0!\00>\F6x\E9=\E1\9F\0C>\C8\99d>a\ADD>\1A\EC?\BD\BAd\C5\BC\CFS\B6\BCqK\C6\BD<\1A\7F=\8DA:=\BD[\1D>\C9\C4M>4\9A\FC=\A1A\C8=\04A\D1>%\FB\07>%(1\BD\8Fg0:u'\91=5\B4@\BD=\BC\C4\BDg\BF\85\BD\98\C8:\BE\82nj\BD\0Dnd\BD\8F\A9\E2\BD\07k\02=\9CXh>=X\ED=8\B3\D2=Y\91s>\9C\D4\9E=\C0\13\BB=\0F\B5\A0\BD\FEWT\BC\89\C6\12>\09+\DD\BB\CA\D2k\BDV\1AQ=w\E9\0B>\0F\12\1E>0H%\BC\A8!W>[\99\8F>\FEi\88>3\A3*>:\E16=-C\93\BD\8B\1E\F5=\B4\AE\7F=-\F9\92\BD\063\ED;\DElw\BD\DD\D2\18<a\C9\06>\F2\09w\BE\C8\C2\84\BE\83\CCF=`E\8C>\A7\B0:\BDz\DA\86\BDH\9A\FA\BD\CB\DB\CC\BDn\E1\FD<\A0d\AA:(\D1\A4;\82\DC\FF<\06a\FC<\BC\F9\16\BC\1C\86\C9<\04\DB\09\BC\B4G4<T\88\C9\BC\CA\F4\9A\BB\BC\88f<@Y\DF:S\EA\BA;z\E6\CF;W\D0\D1<\C2\9E\8C\BCf\9F\09\BD\93Q\C7\BCd\ADD<\A0\04\92:\80\EB:\BC%\1B\FF\BC\8A\9E\D3<\00]\DD\BBDw\06\BC\A8\A0\B6\BC\00z\C8\B8bB\A8<\C2\10\D5<\85x\81\BC\94\0B\1C<\98?E\BC\18\E0\B3;U\F4@\BCI\BD\14\BC\E8\C2\CE\BA\F4W'\BDl\BC\88\BC\0AF\B7\BCL\94\8C<$\E2\17<\A6\D6\E6\BC\A0pC<\9C:8;\1B\F61;\81*\06\BD;\F2\AC<W\1CH<\95\BD\C2<\CC{\C8\BCz8\95<\AB\A8\19;\88\18\E8\BCbp\82<\B8Y\09\BD&\90\DA<\0A\1D\C3\BC\0C$\91<P\9C\07\BB\9B\B3\B2\BC\8F\8CJ<\EB\91\0A<\81\A5\0B;Re\1D<rR'\BD}K\CD\BB\1E-\A5<\7FX\ED\BC\9B\E6\93\BC\F0\DB\C1<\B7\F9\11<3\1E\10\BD\D4\9E\D1\BBNc\F2\BC3\FD\C7\BC}\F8E\BC^\10\B7<\C2\8B\9E;0\FF\D2<\08\1E\0D\BD\F2\F7\E3<\EEm\E4<\90?~<x\9F\B9< \89\AC<u\C9\C5\BCX\AC\1B<\AB\16y<\E2\A2\97\BC\E5\F8I9\13[\18\BD\E3\83\C3\BC:\87\07\BD\9B\99\01\BD \FD\D6;\D5a\9B\BB\DC\18\82\BC6\E9\FE<{\E2\06\BD%\FA\FB\BCR\7F+\BC\9Cm\C0\BC\AB\AEh<\FB\984\BB-\1C\F9\BC\08\BE\94\BC7(\EB\BC\A5n\BA\BC\06F\E2<$6X<^\F7\CB\BC\C0\08&\BA\00\B5\FF9\A87\99;\82\D4\D7<\00\C0\94<\FC\B1\DE;\1Dvs\BC\BA\DB\EC\BC\08\E8\BD<\88\19S<@\0A\\<\C3\AD\F2<\CC\D3\8A<\B4\81\85<\1E\14\AB<p\\\DA\BC?K\C8\BA\A9\BD\C9<\A3\08\EA<\89`\BE<|i\94\BC\C5\9A\1F\BC#\1B\B2<)\F0\1C<x\89\A4<\9C\89\E8\BB\E8\BB\F9\BC\F0\95\96\BB\A0\CAs<pi\BC\BC\E6\EB\DB<i\08o\BB\DCI\E5<Or\A4\BB\CBA\D0<O\9F\94<\10\16\1B\BB\A8\83\96\BCr\D7\AA<\C9\F3k\BC\F6\22%\BD_C\22\BDD\9BX<\CE\FE\8B<\AD[\91<\B5\E0\01\BD\01\97\A6\BC\C2K1\BBsB\C3;\9BTE<\CD\B9\A6<\A3\F2\A7\BC\93\93\C6\BB\E6\C8\0E\BD\05\F6\80\BCC<\D9\BC`\B2\0F\BC\DC\EA1\BC\EE\AA\84<\D3P\94<)\D0\B1<\9C\9D\15\BC\A2\98\BF\BC*\9C\8A\BC\8Cw\9E\BC\85\D2\EC<Cj*\BD8\A7\BA\BBxS\E1\BB\B7[\88\BA\DA\9F\C8\BC!p\22\BDc_\89<\CD\DE8\BC4\1CR\BC\AD9\1C\BD\BC9\DF:\D8\E7I\BC\0D\BA\10\BD\C1\10\8B\BBcU\F4\BC\DCHw\BC&(\E0<p\1F\12;\C7\03\06=x\9F]\BC\D0\EFh\BBz\BDZ;\83\B1\C4;JM\C9<\FE\07\1C\BC\F1\E2S\BC\00\EEl;\BDH\1D\BD\FFH\CC<,\85\F0\BC\9E=T;>L'\BB\8A\C98<\8F\C5\99<\C4\9C\18\BD\05\03(\BC\E48\EB\BB0$\BF<\B9j \BD\92\92L\BC\BE\A0\97\BC\E4\FF\B9<\176\E2;Dw!<\8B\FF\0B\BD\00l\DC\BB\A0\AF\DA<\EF\A6\06=Th\BF\BB\19\99\B6<\1A\0C\CD;\92\14@<\FA\CA\DD;\ED\82\84:\8D4\BD;8\94\18\BD\89i\F1\BC\18Fz\BC|\87\C0\BB\D6n$\BDq\19\A4<\A2\04t<\E1!\C8\BC\A8?\05;E`\F0\BC\9CDg\BCN\DFH<NW)\BD\84\B2\FB\B9\B1\EF\C1\BB~\D9\02\BC\FE\9D\EB\BC;\9F\86\BC\\@\BA<\CF\A2\01=\A7\A5\8E\BC\81\80\07=\EDe\FC\BCM\B5\A9\BC\80\FB\93\BC\A2\D7\00\BD\BFJ\D5\BBX\00\EE\BBw\CF};?\DD\FE\BC\17\87O\BC\80s\01\BDC;\99<Yc\03\BD\D6L\9C;fC\11\BDQ\AF\CA\BC-c\F8\BC\87\FB\88\BC\15\86\06\BD\99&^;\09\0A\E5\BB\D4\BBj\BC\9C\D7\CB:\E0\DF\85\BCr\84X\BC\E0I\8F:|F)\BC\96\B9\B5<*\B7\E3\BC\9B$\07=\BA>\EA\BC\AE\DD\EA<\A5\A1\22;%\FD\10\BD\15\80\91;m\9A\9D<\1B\03\17<#Y'<\88\D3\C5<d\05\ED<\86k\F5\BC}\ED\0D<R;\EB\BC\E9\0A/\BB\EA\D5e\BC\1Di\B2\BCS\B1L\BB5\10\CB<\C4\CA\8F<\FCn\FE\BC\92\C3\0C\BD\9E\11\98\BB,F\E0<^\E9\88\BC\1E\06\C6<\07\B0\99\BC&t\13\BC\05\8A\8A\BC\00%\F5\BA(\8F\C4<\0Ct\AB\BC\C1\DE\F0\BBU1\0B\BC\E5,\97\BC\DE(\01\BD(\01\D8<\9A\FA\1F\BD\03\E6\EE\BC\8B\D0\E7\BC\B4\D0\05\BDI\A4\8C<6\81\14\BC\AAo\D2\BA\B5z{\BC\1C.[\BC\01\BA\D4\BC\90x\96<\1Ar\8A\BC\1B\04\9D\BC\99\C5\E9\BB\C9u\B2\BBLA\D4\BC\DA\F9\EE<\CE\0A\C5\BC {V\BC`\0D\93\BAP:\87<\\\B5\A8\BB\EE4\05\BD\05\A4\99\BC\0A\FD\D5\B9\8D\9A\A0;\AA\ACP\BC(@\1B\BD\F5\D6'\BD\BD\CD\9E\BC\EA\F4\C0;\BFR\EE\BC\01\84\BF<UL\9F\BCY\DDZ<\9Aj\0E<\CC\94\08<j\AF@\BC\9B'\A5;?\99\B0\BC\1B\A1#\BDr`\97\BCxf\8A\BC\EE\07\E6<f\A1\AA<2\14\06\BDx\A2\AC\BB\A4Dv<j\8F\E6<2\84\F4<\E9\D6E\BC\0F9\97\BC\A1*\D2<'\DB\92<\11\D62\BD\ED\EB\DA<\A1a\E4\BC\0F\B9\F9;]\A8\8A;\16+\96\BC\\\B8\89\BB=\C0+\BD{7\93<\02\09\08\BDX\8B\8D\BB(\89k\BCO\CA\1E\BD\80\84\F8\BChT\DF<p]\E8\BC\E7\A5i9\82\10\95\BCX&.\BC\17K\82\BC8A <\00\D0\C5;\A8\CC\AF\BCp\B0\95;\A3\F8\0C\BD@c\0F\BCU\CAp<6M\BE\BC\11\B0\13\BDJ&\08\BDL\93a\BCvhC\BC\E6e\99<p\DB\DA\BCb$\D8\BC\05W,\BAV\E4)\BD\E9X\9C\BB\ADA\A4\BBe.\09\BC;\B5\0D\BD^\D0\9E<\95\EA\12<M\BB\02\BD{\17\8D<\BF\9B\C0<\C3\F8\93;\E4\F9N<\92\9Bp\BC\A5\05\A3\BC\DA\90\AF\BC@\86\E5;\DB\EFO\BC\FEiG\BC\05\10(\BD~\85\97\BB6\FC\1C\BD)H\AB\BC\F2\9F\8E\BC\88`q\B9\C1\8E)\BC \14\FD:`\17#\BB\0DI\C9<\96\90\A0\BC\B9\F1\FB\BC1\04\B9:{\C2\95;*\D8\CA\BCE\85\86;\DCea\BCS\8F\A8<\98L\9F\BC\F8\F2\B8\BB\03]\EE\BC\A6\9Ey\BC\B0\EB\07\BB\A1\C9\22<h\1Cn;N\E1\E6<\F3\C5\FB\BC\1D\B43\BD\D2\A4\09\BC\DD\A9\E1\BCk\BA\BC:\1F\D8#\BD@\CB\17;\8B[\9B\BC\B1\09\FB:..\85\BC\D7\02\84\BCL\F42\BD0\9C\B2\BC\06\13.\BD\1C\CC\C8<f\8C\D6;/\A3\00;\AE\F7O;_M\C2<\83\CE\04\BD\C2$\BE\BCv1\98<\FB\D6\D4<\02\AF\92<{\B4\0C=N\D2\D5\BC\1BJ\0A\BDr\C67\BC\F0\FA\EC;\9A\E2j;q\98\AF<\1D8\99\BC\14+\C6\BC\90\DC\0C\BD\91\14\DE;\FF\9D!\BDz\1D\0F\BCoW;<\D2[\CB\BC\98|\19\BDWg\1A\BD\13\16\B7<\AE\19d\BCh\A5\C3<\93\FD\0B=\F8\0F\87<\A4c\EE\BBj\1C\BE\BC\D0\C1o<\AA\96A\BC\14\03\01\BD,-\B6;?\9Ff:\EC\17\0E\BD0\D5\DF\BB\BD\97\8E<@\EF\87<\E5\C9F;\F1F\C9\BBS\D7\AD\BC\9Ed\1D\BD\C1\F6\0D\BD\F1\86\AF;M\92\BE<\\\19\12<{EG;\13V\E2\BB\\\97\D6\BCP\8B\FB\BAqo`<\AF\DAi\BC\B6+\C9<}\B6\B9:$\8A\E5;\82e&<\9F\89\0B\BB@\F7\B8<#\93\00\BC\FE\B2|\BCx\FD\BC\BC\BA\D3Q\BC\E7\1A\94<i7u;*\F9\8A<2\07\DF<\03\C1\1F;\B1c9\BCx\00\F0\BB\E5\1E8<\E9\0B\B4<\B3\D6\BB\BCl7o;5o\1A\BB\F05\BD\BCF\E3\A5<\8C\F0\90\BC\B0\96\99</>r<\E59*<P\BD\C5<\C9m|<i\80i<\86\08\F0\BCs\C0\DD\BA\B8g\0D\BD9Dm\BANh\86<\80\8E\FD9x\DB\F9\BC\08\A4\DC\BBa\B0\B3:\E9\E6\1F\BD\C6\A1\F3\BB\AFt\0F\BD\1EWb<\0A\D4\00\BC!\94\D9\BB87\BA\BC\BC\B90\BDwc'\BC\1B\CD\11\BD\0A_\92\BCp^\0B\BD\DB\D9\D3\BC>\0FX<`\87<<\8C\E4j\BB \DF$\BB\00X\B27\9C\BC\13<t\D6_<\9C6\88<\D8/\BC;\D0\B64<^2\D6\BC&\E6\1F\BC6\F7\BD<\A0\83\14\BB\EE\C3+\BC\A2\C6\E5<S}\D1\BC\90\DC\86\BCVF\12\BC\1E\82\11\BC]Z\10\BD\D1\C2\85<g\1B\E4\BC\02\B7\BD\BC\AF\C3\C9<O\B5\F69\FC|\DF<\AC\C6\F8\BBK\B6>\BB8\8C*\BD \7FF<\F0\B6~;\E3\12\0E=8\F9\C4<l\92\BE<\EAa\DD<\11\F9\E5\BC\E3\C2\BC\BC\E8\96\93;\\\93\0E<(ml<^~\86\BC&\88\7F\BCj\00\B1<\D8b\00<\D3\D5\C3\BC\8D\EA\85<\8E\F3\A5<\DFB`\BC\1E\06\EF\BCs25<\AA\0E\DB\BA\92\B31<\CD\AD\88<\DC,\95:\B9\B9\E3<\AAj\88<\83\09\82\BC\D2Cw<`\\\DF\BA\AE;\A0\BC0\E7C<\80\CD<\BC\EE\C7\9B<\FC\B6`<\00\1D\B6\BB4?d<J\FD\C1<\00\AA\8C\BB\F5V\CD\BCHM\DA\BC\D3g\C3\BC\AA\9A\8C<\15\AE\87\BCgd\B1;pg\1C\BD-\F9\1D\BDF\0F\88\BC\BB_\1F\BD\F2j\0E;T\EA\85\BB:]\9E\BC\9A\B6\80\BCr\CB\EB\BC\AB+\A0<\AA*\89\BC\9Bz%\BB\A9\86\05=Wv\90\BC\F3\EA\09\BD\10\AB}\BB\F4\E9\11\BD\DE\1B\F2<`\D3v;\17[\0F\BD\A0\B4\0D\BBP\B3[<\BC\C3\80\BCjd\AD\BC\BC\ABe\BC\DCl\FD\BB\934\DE\BCY!\EE\BC\AAp\13\BD\ECN\C1<\AD\F4\E3;\96\EA\05\BBc\84\96\BBe\BE\AD\BC\F8%\CC;\1A\02\19\BC\BA\E7\1B;\01\C3\D4<\F9`\00\BB\E4\10e<\92g\AC<dN\9F\BB\00\F8\07\BD\98\9C\E0\BCj\C6\0A\BD\18\BF[<j}\91\BC\B0\EAC\BB\02\EF\F1<\E8\F9\88\BB\93\E5\03=u\9A\F6\BC\00\1CO<\E0\83\9E:\CD\8D\9E<\D8\CF\F5\BC\BD\A3\D6<\DD1\13\BDy\02\D6<\AD\892\BD\17\19\EA;\8E\CA\84<\ACP\CB\BC\A8\19\FE\BA\C6{\C2:\E4\B4\E2\BA\90\E9\89\BB\9B\14\FA\BCa\FE\FE\BC\B2\FAh\BC\F6\8A\C9<\12\B8\8D<eH\04\BDnj\CE\BC\06\C9o\BC\FA\B9\AF<X\AE\1C\BC\1C\FB\DF\BB6\1A\FB<\BA\C5\87<af\EB\BC5\9E\85\BC~\89\15\BD\E1E\12\BD\14=\AF<\D5\06\F3\BC\CA\BD\D6\BB\C7\A7\B7\BC\B3\82\1A<?U\9F<\C8,\C9<\8E-\06\BDka \BDS\FF\80\B9\D2u!\BCL<\02\BD\CC\07\F9\BC\0C\05\B1<\0ESp\BC\18\09\A0;\A6\BE\C3<\C0\97i\BC|\ED\F4\BC\10;Q;\CEU&\BC\D0x\A6;\E8u5< \E6\B4\BA\C0\18\8B:\EEl\FD<8Q \BD\9A\B3j\BC|=\F6\BC\CE\CC\08<`\BAe<\D3\BF\8E\BC\F1\D7\C7\BB\A9\22\B4;Y\8B\D3\BBd\ED\80\BB\1A\AB\8C<cQ$\BD\0E\FF\C4<\19\A8\C5\BC\F8M\AF\BC8\B5\B8\BC\C1\C1\F0\BC=4\12=\BCs6<\FA\AE\80\BC\9E(\DD<YH\7F=\BD~\87>\E3 \EE;\C4r#=INC=\A8h\83=\C0j^>^l\0B>y\F7\18>\86\B4\AA>\05\BD\DC>\A3.\F0=\B8\E5\1F\BF\81,\17\BF\\\81\EF\BE\A2\93\09\BF\14\9A\BE\BE\F4\9A\FD=<>\AA=@||\BDA\C5=\BE\E7F\C8\BD2\1C(\BDS\EC\EE=O{X>\0D\01\A2>\\\DA1>\03\8C=>h6\18=\8B\AE\16\BD\15\0F\B2\BD\A5g&=\1A\81==*\9D\17>\07\F4\CA=\F4Jx>\FBB\CC>\CA\DB\E5>e\DE\AB>\CBv\AA=e\1FK\BE\F8\A5\88\BE\CB\B9\92\BEV4\99\BE\10\EEG\BE\EC\18\06>\88\BD[>*\E0\89>\C5\96/>;\A8\80=\AE\CA\16=\9AV\83=<\C2\0A>pK\\>\92\C4u>\B2Z\95\BDpD\F7\BCl\0D\A5\BC{\9Ef\BD\DD\E7\92\BEp\A4\14\BER\E7\90=p\F3\AA>\94\93\EC>\16\CE\A1>r@\81<E\03\8E=kD \BD\BC\1D!\BE\01$\DD\BE\E0\D1\08\BF\EF\9A\EC\BE\8C\CF\1F\BE\AD\22\0B\BD7\E1\D4=SA\A0>\E9\C4\DA>\1BN\80>\87\9DL>'NV>\08\B7)\BC\C7\E7\C6\BC\D4\CF7>]k\90<\B0j\0D>\16\8D\F2=\8F\CF{=\C5^\81\BD\E8\97\0F\BE\BF\11\E4=\CD\AE\C1>>\A7\0D>\B5\B3\D8\BD\CC\1C\0F\BDT\E0\A4;\EE\E5\FF\BB\B2\AA\A3\BD\0AG\B9\BE\1F/\01\BF\1E\D9\88\BEm\ED\1C\BE\F3\1E\C7<\C9b\0B\BBd\88\91\BB@\1C\C4=\F7\1F\81>\DA\C8\A3>\85pb>\E7\F6\F8=Q~ >\1D\DF`>\19Q8>\CE\DE\81>\CB\D8b>\C4H\07\BDU\C2X\BD\ACb\C5\BC\F0\22e=\FC9A=\7F\D1\86<\E3\0A6\BDT\F4-\BD\0A\BD\DD<w\90K=K~\D5\BC\02\\\D4\BDV]R\BE\E7_\16\BE\80\FA\0B\BE}q\0E\BC\AFq\E8<\B0\A1\DC\BD\92\18!\BE\D9\EC\AC=*\0ER>JM\97>KI@>M\B1i>\1B\7F\CF>v\FD\B4=\C8p\B0>4\85\A5>T\CA\17\BD\E2a\8E\BD\0E\93R\BD/k\8A:~A\F9\BC\09\BE\08<\C3\E1\08=\D4\9E/=\DE|\DC=0\AAH\BA7\E6\A4=\B6;\13=D\19\09\BE\D4\AD\1B\BE\F0^\0D\BEdYE\BEW>:\BEF\D1\CE\BDy)m\BC\B2\D7L=P\DD]>Vb\81>\F6\\\8E>\F5!\AF>\8C\0C\B9>\DB\E4\92>\91J\C8><\89\D9=&4\9A\BD\18\D3\94<\DC[\8A\BE\AE\A1\8B\BD\01XE\BE\CB\F6A=\CEa\FC;\E8g\01<\03q\CF=\90\E6\E5=\A1\FA\0B>g\\\EB=\F6\8E\80=\AA\D3\00=\A0^?\BD\C8\0Ac\BE\86K\E9\BEI\A2\84\BE\E0\EC\9E\BC0\C9\D8=]\8D1>\A5\89\8C>\8Dl+>\DBlx>\83\9CX>\E8p,>\B6)v>\D151\BCpV]\BD_]w\BD\AC\F0@\BEj\C7\87\BD\09\D1>\BEZ\FE\DC=7\92\08>\15&<>\\\C9~>]X\87>;\C24>N\86\93>*\D9\BE>\A8v\0A>1\A7*\BBp\AE\A8\BD\F5\02\B5\BE\10E\95\BE\91\B2\F5\BD\96V\AC=%\9Ae=\F3\CF6>{~$>\8Bl\F7=\90\04E>q\D0\99>\D1r\AD>1\12W\BC\14v\D4\BC\FF\E6\91;\01\14\0C=\AE\DA\C9\BDM\F6\1F\BEU\F4\19=\BD\97F>\A7\96\C0>\B8t\DB>\E0RS>\113\DD=\F0\17v>\A1t\8F>\98\CCB>\22m{\BDS\1E\BD\BD\CD\B7\C4\BDT,\83<\EE11=Z\B0\07=q\C5)=r\F8\9C=|\98*=\16\16O=\F1\8C\03>\FB\96\9B;B\04\CA>Vn\C1=\90IH<\0F\9C8=\8A\C0\96=\ED\13/\BDO\FA\A6\BDE\B2c=\F2\0C\9E>=\FE\01?$[\E5>\9Av\FA=\18\8A!=\BEm\92=\15\1D\22>\AB\1C\90=\9DP\19\BE\97\0A`\BE\DE>\BB\BD\B7\05\A9=\F6\1E\DA=\04{\EA=\1C\89\1B\BD\14\C9\91\BDV&\03>\A1\C9X=\00\A3\91=o*\D3=\1CQ\A5>\DE\89i>\84\E6\15>\BF\C2\DE=\B2\E3\F5=\99\033\BDP16>\E0\B3\A5>b\7F\9F>\C7\F9\B8>\02N\87>AJ\9F\BD\98\D1\81\BDyq\D5=\B5vz=#\F0==9&\81<Llx\BD\B6]\88<\96\FA\98=>\0C\C9=_\071>\9E\9D\22\BC\D0/3\BDT\E9\99=\BE\13x=\C1\0C\13>\E4\B8\C1>*\81\03?\05\1FZ>Q}\81=\DC\E8\DF=\9At=>=\B80=\18\D2\A4>\DFP\BE>\08I\EA<\AF\D6]\BD\8F;\1B\BE\22h\A4\BEj\C5\19\BE_\C1\88\BC\F2g\D7\BBpE\E1\BC\86\C3\CB;\CB\BB\B0\BB\86\CD\C2\BCQB5>\09-U=b<\96=\BE \AA=\B6\0B\F0<z%S=\D40\F7<\A0X!=\CBJ*>\B8(\13?\BE\13\B0>\DF\C1\87<\BB\8D\8A=\1A\CB\FE=\89\C1\00\BD\97\A7\\>nTy>\C0\EFq\BC\FEz\B3\BDV\AD$\BEN\0C`\BD\1DxY\BD\9F\07\A2\BD\02\03\A4\BDr\B1+\BD\C3I\0F=:\19\A3<\BF\DAG\BC\F7\C8\18\BD\B4Om\BD\08\97\8A=\96fc\BD\DA0\8A\BC\1A\DF|=\C2\E9i=\BD\01\F5\BD]4\AE\BD>\02\00?(q\19>R\83'\BEsQ{\BE\CC(\FE\BC\\\0D\91>\DC\DF\85>\A2\0C\C4=hn\15=\82\FAi\BB\AFS\CF\BCB\D8\B4\BD\C5\A7\9E\BD\C7[\F0\BDx=\00\BE\90\F7\08\BE|\CB@\BCV\F8\D1=\96\B7,\BC\EAt\16=\BCDu\BC\DE\14\1D\BD\B1t\C1;\A93p=\EB\88\EC\BC\B5\E4\0B<\8EBH\BD\FE\1C\C0\BC\F2\F0W>\FC\E4\A2=\857#\BEq_\FF\BD\C0\F7\81=\DF\98\87>\B2\A0\D3== \C6=\81\08j=G\0D\F1\BA\AF,\1D\BC\E4\B7\A6\BD\B5\B3J<`\BB\0B\BE\81\91\C4\BDO|u\BD0\AB\DF\BD\82\E3'<\12G\0A\BD\E5\99-=\00\BA\FC=\FC\89\D2\BD\7F\14\0C=\1E\1E\CC;\97\CDG\BD\F6\CB\AC\BD*\BA\BD\BD\A9\AD9=\BC>\B0\BDJ\A8\A9;\F2i\F1\BDMPa\BDNR\BF;\F7\D7o>\8B\EE+>\A1\C3M>\9A<B=\D2\9B\C9\BD\F3\B1#=\D5\FA\CA\BB\BD\83\\<$\E00\BD\B1\13G\BD9\D9\DD\BD\F8\1E\00\BD\04\C3\9B\BC\FB\9D\8A\BCj\EC\8C=\DA\0B\FD=\82\9E\F9;\18?i\BD\C8\E8\8A\BD2\F4\B0\BD9I\D0\BD\A4K\9F\BD\10_I>7\A8\DD\BDM\CB5\BC\88]\E0\BD\0D\E2\BE\BD9\A9\95=;\DC`>\E2\08\14>es`>kA\08>3\9C!=UE\1B\BD\8A6\BC\BB\BCw\05\BD\8B\CCh\BD\C5\9Fr\BD[\90\04\BD\AFvj\BD\F6\CC#\BDk\1B\8A\BD\1A\A5\9D=\D3\E3\B2=sie\BC\84\B3\02<\15J\8E<\0E=\F5<\8D\9Em=\B4\EB\D6<Q\FA\9E;H\CB\D0\BD\A47|\BB\A0^.\BE\B2\CA}\BD\C5\C2\C5=\D3<\01>\DF\0BY>f\D1\83>\00\9BN=+\A8\BF\BC\AA\07\C2\BDl\90\1A\BDd\191\BDh1\BD<\93\C7\8E=\D9\85X\BD\1F\C8\B4\BDW\FB\86\BD\E5s\12=\CD\F3\7F=J\83\C9<\0C\B7\9E<\83\B4\0C\BD\93\BF\14=\B7\FB!=}\A7\A5=\88\D3\82=yq\D7\BCa\DB\09\BEl\FA\22\BD\BD\DE\B1\BD\F4\919<3\B4\87=\89\AA\F9=\05'#>E\E42>\EC\E1\FD=\CF\7F\B2<\0F\FF`\BC\EC\E7\B9\B8~p\B3<\F1Zi\BDs7\E4\BC\CE\1A\0A\BD~\13C\BD\05\F5\A6<-\E9\C5\BC\1C\\\B9\BDoU\AD<K\F1J\BDKn;<\BE\B4\B3\BC\B6#V=^\1B\90=\E1\0Af\BC\F5B\D5\BD&\ED\92\BB$\97\B4<\8A\0D(<\A8\1D\E7<\0C\D2t=2]b>\F4\0D7>\A8Y(>\F9zT=\9DO\C7=\7F\0D\9D=\18\80\F0<i\A7\18=S\F45\BD\0C/9\BD\FF\E5\B8\BD\09\DF\01\BE\FF\C7\16\BE\C0i\03\BEU\8A\D7\BD\1A\09\19:\0C\AD/<\F9\0B^=\05\16X=^\9B\90=c\E2\\>\D9\9D\E7<\FC\C3\90\BE\FDQ\13;Ce\16\BDb\02\1D\BDWF\B2=\0AZL=\EC\BC\B8=\03:\1B>\1B\8A_>\D2\E2\F3=\BF\8D\97=|q\B1=\C0\B2\81=B\D7\89=eF\F8<HUJ\BD]\A7\0A\BE~\B7W\BE\E2\1C\BA\BE \E7\91\BE@\F0u\BEt\08\CE=#v+>_\7F\BF=\B7\B3\92=\DF1\01>\8A\FC=>\D6\11\F3=\9C\08\8C\BD\FF\91]\BC\A7\0E\89<*\FD\04\BE\C3\E0\A1\BD#\8A\DF\BC\06!\11>\88\F3x>_=w>\C0\A1\8F>k\D5\0C>{\A7C>\87W\E3=\01\B9\85=!\B9]=[\A9\B7;\B3\8F8\BE\04\F1\D5\BE\06\B5\F1\BE9\82\DD\BE\AF*\AE\BE}D`>}\FF~>\FEs\CA=\1B\B2\18>\F8\164>\B9\A3\81>\8Bzl=\EE\CA\95\BC\E0\B5\C3\BD\8E\B0\A5\BD\E0\996\BE\88\9D\F3=Z\B7\A3\B9L$\92=xV\D2=H\DD\01>\E8O\16>\00\DD\03>\D4\06\BC=\BFA\D2\BC\DB\D1\9D\BC\E3gN\BD\0B\B43\BE\F9\0E\CA\BE\C9_\05\BF\1E\94\12\BF\CC\F0\F8\BE&\C7\93\BE\08\D5\EA=\EB1\82=.\93\09\BDN=\8A\BD9\F1\B3=\06\CAf>\B0Z\DB<\DBF\E3=\BA\1F\94=\0F\92\04=\D3\DC\87\BD\93\EAJ>\8F\E1F=\F9\19\13<%\FE\B1<0\D8=>\82EG>P[\FF=\FA\FA/=i6\DA;O4\B4\BD\83P\91\BD\EB\0F\CE\BD0\223\BE,\9Di\BEw0W\BE>\D9 \BESz\03\BD\A2\84z>\941\CF=\08u4=\B6U==\B2\AE;>\DC\BD\CA>\FD\FF+>\FB\01\08\BDTP\17=\C8\D2e=\F2i\09=\84\F7S>\DC\88J=\AE\1F\C2\BC\06\04\1F\BC52\B2=Wm/>q^\DC=\1A\05p\BC\10\E0l\BC&\E3\C9\BDo\80\0F\BD;\8B\09=\E7x\A7\BDt1\ED\BD\A4\DC\EF\BB\0DA\F0\BB.(n\BD_\F9\C2=\F8\C4\16=\CF\E8\8E\BD\\^+\BD\A00G=\EB\E2T>x\F7\C6<\D8\CF\B3\BD\BC'\DE=\F3\AF\DF=E\09%>W=\06>'\1D\14=&\83\D6\BD\DE\86)\BE\0E9\96=^\9E\93=i\B3\B3\BA\BB\0Ex\BDa\12#\BD\C3P\DA\BD\0A\03\87\BD^\D6\B3\BD\81\8A<\BE\EA\A2.\BE$~\CD\BD\D1\03\B3\BD\C3\F2\D6\BD\9B\04\A2=\D9<\F0\BD[\A1G\BE\EA\893\BE\BC\D0\1A\BEM\F6&=\AD\F8M\BC(\90^\BDES\1C>\12E\B9\B9\E0\9B\0C=\D0\07B>\B1\E3\E2<\02\06\81\BB<\CER\BE\1D\8Fh\BD\F4KE>O\EDB=\88\01\D2\BCP\D9\B4\BDo\DC1\BE\0Ac5\BE\96\D0H\BE\11\9B\98\BE\B9v\B4\BE\D1\B8\BE\BE\DFB\B2\BE\0B\DB\9F\BE\1Dv5\BE1\CC\9C\BE2\CA\D6\BE9\AD\BD\BE\FF\AF\99\BE;*\94\BD\FC\C4p\BE\15b\83\BD\16)\1F\BD<\A8\8A\BE\0B\17\BC\BEF\F8P\BE\B8\\\95:\A3\98\01\BE65^\BE\CCo\16\BE\97i\AC=\AD\B7\18=\85Zg<\B6e\07\BD\91\85\1B\BE?\06S\BE\08,O\BEI0\AE\BES\EE\B4\BE=\DE\F2\BE%\A5\08\BFyx\D9\BE\91\F4j\BE\D9\D42\BE/\C0\A1\BEE\F3\88\BE\FE\88\99\BE\B3D\1F\BEO\1E\AE\BE\EC\F6\97\BE\D5\C6\A1=6\D5\B3\BC69\AB>\0E\09c>(\BCb=\C3f\AB=\0D\82\AD\BEC\F4\B8\BEX\97\FE<\F4\8D\A3\BD\FD\87\11\BF\97\14\ED\BE\CC\A3\C3< \A9\01\BC*\DDu=[\A2k\BCJ\FA\99\BE\C0X\0D\BF$lk\BEYU\AD=\A2\B5\C1\BB\1A\EF\A5\BE\8B?F\BE\09\97\9E>\95_\F5>z\EC\93>Z\18d\BD7\90\BC=E\EB\8F\BBH\D6\85\BB\D9\A6Y>\A1\FE\90>G\B8\AF>q\F1*>\BD\17Z=\AE\D5\B1>\EB\BA0=\15D\FB\BE\D6\F0\02\BF)\C3o\BE\C7j\10\BD\03\0A\A7\BD\ABA\1C\BE\1A\DEY=sm\D2\BD*<\E2\BEq\17\E3\BE\AF(4\BE&\B5\CE>o\84\8C>\F3a\C5=\12\EEv>\89\D2\00?\94H\BA>\BA\97\A3=\E2\DF\1C\BE\F1K\E2\BD''\D1=\EE|+>\CB\FA\B9>h\C0\A7>\19\A4\F5=H\00\97>\EA\D4i=\16\E9\C4\BD\FA\225\BE\97\80G=/\93\9B=\D2\82:>P\89\D2=\95\98\97=a\0D\DB=\DD\CC\8A=\DC\DB\1E=\C8.\96\BD\CBC\B0\BB\0C\D2\85=\1F(\AB>\F3\E9\B5>V\AE\1F>\14\8A<>v@w>1Uj=\0C\22J\BE\18\C5-=\F6\C8\82>\8A`s>\B3\D4\DC>I\96\B7=p\B4\B0=\9Af\8E>\A1\CD\F6=\8D)\BC=6\E3m\BCeu\DD\BDJ\17M\BE\92\0C\EF=Z]7=&M\B0\BDsC\9A<\91\AC\CE:\E5\F5\1A\BDh\0E>\BD\A17\14>\C968>\B6e\9E>\9A\DDt>4\B85>:\CF\EF=\C4\1B\86>71\12>\0733\BCz\BD\B9=\A5s\7F>76\89>~ w>\8D?\88=uk\8D=\CD:5>\96\F7H=?\FE\F8\BCB\A6\90\BD1\A4)\BE\D8\D9\F5\BD\15\B0_=\CC>\CD=*\1E\A6\BDA5\C7=\B6\C4G\BC\A9o\F8\BD\E0K\8F\BD\B2\E7\F8<5\0B\A3=7\ED^>M\08l>\D5\CE\E2<]\9E\CF=D6\9D>\F7g\AF>\972\0B>\A4\B6b\BD\B0\A4\A2>SJ\8E>D\0D\C6=\A4\D8\84;\B9\A5\A5=\B3J\89=\DD\1E\8B\BD\BF\FF\F4\BDh`s\BE<\949\BE\98r\FC\BD\89\84K\BD\E5\91G\BCb\C5\1F\BD\9F\B9\9D\BD\8E\C2\BF\BD\13\87\0F\BE\F9N8\BD\81mt\BD\D2=\CB=\D6\83\E0=\05\BB\11>BO\0F\BC,\ABp:\96\A3\8E>\83\12\AD>N\A7\D0=\A2\EC&>\83w\D0>\D2\B0\9D=\0D\B3\C4=}\DAb\BC\FA\92\8E=\C9\1B\9E\BD\B6\AE\E6\BC~\C7\97\BC~\17U\BE?M&\BEGE\A1\BD\D2\A6v\BDM\83\8B:z!\C8\BC\FCP\9E=\86\D8\C1\BD2$\C9\BD\BE\F6\06\BE\DC\D7\D7\BD\14\E3\FB<zI\04>\1C\1B\07>\964?=\05\1C\19\BC\DA\82|=\A6\88\B8>@\F4\F4=(_\05\BC\19\AF\B1>\98\06\1F>T\08\1F>\1E\87\B2\BB\F70\A4=\8F\05\1F\BD\E4\F2\04>m/\B0=_\C17\BEa\99\87\BE\C1<\14\BB5{\BE;U\FA\08=sj\80=\8B\14^=\A4#\\\BD\EDy\00\BD\E3s;\BE\B0\92\B0\BD\813\AD=\9B5\B3<\1E\8FK=\1B\C3\07>0H\EA=\9B\A1\BC=\A4\B9\8B>\F6\98\9C>\E4\89\D7=\AC>\9C>B\CEz>\81\82C>/>\E6<${\9D=\0E\F88\BA\0911>\D3p^>\A9o\A0\BDY\C4\11\BE\92>\B3\BDh\1A?={\B4\B7\BC\C1\E4\15=\12\B3\A6=\B79\B8<\056 \BD\9B\A4\05=i\96\94=S\02(>Ch\F6<M\1B\BD=Bx\15>\06\9D\9D=\BB\80\BD=\E8\FFG>\F7\F0\9F\BDx\FF\84>\EEJ\DA>\E6/\00>%\C6\C5=\8D\CF\B8=y2s=\A8i\91\BD\0A\80->\CD\D6c>\D8\9F\0B>K\8A\D1\BD8\FAi\BD\A5\D5\98\BC\05=\89\BD\E5\B36=:\12\D8=\96\F8\00=Oc\CF;\F0\88\0C>\0E\85[>B/V>\E7\F7\EE=\CC\CA\DA\BA\87\B3\09=<\F0\A1=\E3\86>=D\EBH=x{\CC=@|\BE>@L\0C?\B9\A5o>\0E\AA\A9=\8B\C7\15=-m\BF=\D2\8B|\BD&FP>B\AD[>\9C\AFW>C\8E\A6\BD\06\A7\94\BD*\00\F8\BC\A7L\81\BCz_v\BC}\DE\C2=e?\A4=\FB\A0u=\F2\8C\16>;\D5%>w\B9B>;\F2j=\A9\A6\A7;\C8\B4\83=\92\B3\80=\BD3\AF=\DCp#>\93\B7\AD>\93\96\CB>\C7X\02?DN)>\02\A2\08<\A5N\B4=\A3\15\B9=\C1P\A7\BC\80|\08>\97F\1F>\8Ag,>y'G\BE\17S\19\BEYl\1E\BD\C5\8A\9D;\E8\C6_<\D7\85\81=\07\05%=\D7u\95<s\CBG>\AEI3>~T\94<\D7Z\E1;Km+\BC\FA4\11=\8Bsh\BD)\B5\9A\BCI\E7\8D<\89T\09>\FEp\B4>+1\D6>[\E7\0F=\0D>4=:\F8\94=\A1\C9\95<\9B}\9A\BDU\C0:;\9B\EA\D1=\AD\8F\F5=\A6\8F\FC\BD\BBv\82\BD2\86K\BD\98\DB&\BDG3z;\F3\84\8F\BDR\05d=m\D4\C3<'\14X>\10\BFL>\FE\ED\15=\1D\E8V\BD\BD\CCb\BD`\EF\B9\BCT\B6\9F<\BD}Y=OF\92\BDH\E3#\BE\19\93x>\C8\B2\B9=\D4}\03\BE h\12\BE\D8\D6\06\BD^\E3I=j\02\9C\BD\92\C6\D8<a\C9\08=U-\1E>c)\94\BD\9D\08\C6\BD\D1A\84\BD$\D3\D7\BDZ\9B\8C\BD\B1Y\FC\BD\F8\A4a\BD\F2\1Fz=\BF\165>\82\10\16>\FA\F7R=\F2P\07\BE\F2M\A0\BD[4\08\BD\B7X\C5<-$\85\BA\ADG+=;\1D\AF={\C9*\BE\84\987=K\88\0D\BEi\CE\17\BE\E1;c\BD\A4K\B8\BAU\B6\C0\BC=8{\BD=\D4.=\FA\BD\1D>\B6\CF\A7\BDFh\B6\BD\E1\A7\CE\BDK\DD\18\BES\9DG\BD\CA\85%\BDk\A8\F3\BDJ\9E\05<\9E\1A\A0=\CB\8D\99=\08y\92\BB\9E\C5\1A\BEq\89\0E\BE \BA\AC\BD[\FD\18\BD\CD\01t\BD\C1C\91\BD\A5\D9Z=\A2\BA\13\BE\EA\82\94=ibs<Oy5\BC^]\BA=\EA\E6\CC<\C6SK\BD\0B\93\8B\BBm\07W\BC\832\8D<\D7\8E\10\BE\CD\DD\E3\BD\CAT(\BEeA\C9\BD\E6\AA\EA<\B4\89b\BD;u_\BD \C0\99\BCX\C3\F3==x\CC=\15iO=\C7\B2\B6\BD\0D\BE\99\BD\84\11\82;4b =\1C\A0\90\BD;\AA\A8\BD}\07~>\E2\195\BE\00\C9\93\BC\FC\94f=\E5\8A\B3<\8B\B0\86=J&\9C\BC\8B\E8K<y\FCd\BC\CA\CD\88<\A5\CF\85\BC\87\FC\00\BE\18\C7\B5\BDu\B8\CF\BD\D5h\A8\BD\16\A3\EB\BC\06$\17\BD\1E\91B\BD\BA\CF\8F=\A5\DAm<\A9M\C8\BC;\A1\A7=\1D\04\B4\BDBX?\BD\E03\C2;\13\EDs<\E9\08\9B=\9B\B2\BC\BA\A7\83\12>\CC\F5\9C\BD\C9Q =\13\0F\B3\BD\12:i<x\F6\EE<\22_\A3\BDJy\83<\8CD\85=\C9\F1*=j\C7g<\E65\E3\BD\D3P\95\BD\11\C0u\BDZ|\A6\BD7\C0\A1\BC\D4\EC3\BDv\E2\8A\BD\93\A1\06=\819p=\\\8F\DF\BC\BE\A17;\FF,\D6\BD\867\D1\BD8\19\83\BD\B0\929=<\13\C8=\C3\A4\0C\BC\F2\0F\90=\DE\BD\95\BD\06\AD+=\FB\12\84=3\03\DE=\BC\FDb=+\F0\D8\BD\C6M\04\BBz\0EB\BC\08\9A\18\BD\A1\06 =\05\0F\CD\BD\D0\0B\A6\BC\A5\B4\00\BD\B0\9D\DA\BD8!\FD\BC\82\93\C8;\81Ae\BB\22\CEm=\A3\82\07<\C8D\9E\BBee\DC\BC\7F\DE\9F\BD\02F\CE\BD\01c\8C\BDi\83%>]\EF\DC=\FA\88\9F<\84\EFp=\7FN\EC<\F7\F0\D7<\F9\952>\09\86\1C>\F5\FE\D3=\D2b\CF\BC\90\E6\EB=\CA\9F(=XiJ=)\E5\98=\BA\97\9B<\C0\16\14\BD\F5\AF\C3\BC \A58\BD\B2\1E\FE\BC\04\EA\06<\82\AEw\BD\93\B1\96<\89|\1D=M\96~\BC\F0|\E8\BB\F3K\B1<\9B\BE0\BD\9C3%\BD\BA]u>|\13\A3>\E5A;>\9E\0DI\BESj\0D\BD\07Y\89\BD\07\8A\D0=\C2\BCU=\BB\13\09\BCD<(\BE\EC\B6\97=\EB\FC\0F=\CF\06\A9<=\ED\87=\E1\A5E=\FDoM\BB=\0D:<X\B7\0B<\BF\09\DA9\1EVC\BD;QM\BD\D6\8F-\BD]\AEF<\8D\99\C3\BC\CF\85L=\1D=\DE=;r\15\BC\B4\CC2\BC\FC\B9q>\0F\15~>\DE:\D5=\B0\1C.\BD?\C7\F7\BCO#v\BD\F2\ED\02=\BD3\8D\BB\918J\BDF\AC\88\BD\BB\167>c\02\CB=\FAM\A3<,\C2V<n\93\DF;\B4\9E\1B=Uc\A5<\7F\19\CE\BA\CD\8E\84\BB.>L\BD\00\0D\CF\BD\EE0)\BD\1E\DC<\BD\E5\C0\FF<\84\A7P=\16\1ED>\9E:\7F=R\04\BA\BB\B7\CD\E9=\00\16\E8=w\E6\E9\BBU/\80\BD\AC\A6\84\BCsi\86\BDm\B05\BD9v\AF\BD<wv\BDU\EAr\BD\C7\DE\E6= \FA<>\D7\F0\E8=p(\BB\BB \DF]<\CCSf\BC,\8BJ\BC\18\0F\E1<\80&\89<\90\87\06\BDL\FA\9C\BD\A3[O\BDdn\08\BB\DF\BF\97=J\\\FF=\C3d/>Xka=\87x\EF\BDW\A3Q\BD\8F\97\AD=X\DDZ\B9\C7\11\09>\05\D0\A3=\02ct=\8C\93\C8<\92)e\BDX\1B\F7\BD\F24.\BC\8Fy\0E>Z\CB\83>\15\0D\ED=\0C\7F\C0:\EE\18#<\8D\8F\F1\BC \99r\BC\FDI\AE<\06\E6\89\BC\89s#\BDr&\1B\BD\F5\B8&\BD\ECu\81\BD#\03\0F=\F7m&>\D3(\11>\C2\D5\04>\F6\16\B5<\09\B0\FB\BD\D4\83&>y\80O=\1C\DAq=\B3D\DD\BD\B0\B4\E1=\\)\9D=\1F\1D\83\BD\AC\ED\FE\BD$\96>=\8CV\11>\9D\00g>\BB[\1B>\8E9\A2\BC\F2\81\99;\85@\A4\BCG\E5K\BD\91v\89=<3B=\FE\A3N\BD\18\AB}\BD\9F#\D0;\9D\A6\8A<*\AD\F3=\EB\80\05>\C3n\D3=\B9\B6\BA=\B0\B3]\BD\B0\C2x\BE\C1\00\9E=\F38\E2<PQ^\BD\06\D2\EC<\97@\A3<!\95\95=NB\14\BE\C1_\1F\BEh\02\02\BD\14\0Ae=DT\C9=\87\A19\BC\A0\AA\AC=\87\C4?=\F8o\B4;\15\ED\13=\B0\AB\09>\C1\D0\8F=W\FB\12=b\F8@\BD\8C1\C48\FE\03\98=@\FA\C2=\ABo\95\BD\CF\B9\04=\E0\04&\BB\84o\1C\BE\E9\96\7F\BE\12\18\10=i\8B\E3=M\B9f\BD\D5\D3\FF=J\B5\B5\BD%\D5\CC=\BCe\90=\B0\B9G<R\B7\A6\BD\EC\C7\18\BC\E6\1A\01\BD\D9:>\BELW\03\BC5\19\0D>\16&\B9=7\BD\E4=M\A1)>\0D:W>Lx\CC=\08\9C\DE=\FF|\D4=\8E}\B6=V:\CA\BDRB\A0\BE\82\A3\FD\BCc\C9C\BD\A98\C5\BDE'\D3\BD\C3J\AC\BD\07\FDz\BD7\\\E1\BD\CA\B6\BD<*\C6\\\BE\D8no\BE67\7F\BE\02\19a\BE\93 \E8\BD0\E6\C4=\C5$G>\E3\E5%\BEu\A4V\BE\AC\B1C\BE\12\DE\BB=\C4\DF\84>\04B\DF>\09m\EC>\83\1D\86>V\C7\17>\C9\82\B7;C\CEd\BEJov\BE;b\F0\BC9\0A\22>\DB\E2\14=\A96\A4\BE\CB\1C\89\BEr\DA\88\BE\8D\183\BE4O\84\BE\AE\B3-\BC\86\0B\BE<0\0Fb;\9Bn\05=\A8\E9\E3\BCc4\B4\BC\ECBQ<xf\8B\BCtS\AA\BB7\DDm\BCf\BE\03\BBGG\9C\BCd\04K\BB.\C9\A3<\D9\A0\DD<\9F\A7\99\BC\DA\AE:\BC\82\9B,\BDv;\87<\D3\B3\92<~\DC\E3\BC\C6X\FF<>4\F1:\CE\9A\90\BC\C8\1E\BA\BC\D0\10\DC\BC\E3x\0E\BD\C0\99\AA;\80n\CD\BC;J\0D=>\1C\A8<\05j\F4\BCC0\A4\BC\18\9E\D3<\9F\AC\0A\BC\CCB\ED\BCJ\F1\CB\BCqx\CB\BC\C4F\BD<\02\DE\8A<\09/\E9\BCE\90D\BC\D3\DER\BC\D0\FE:<\E1\84\A3\BBl\D4\D9\BC+\AA*\BDT\F6\B6;\08\00\AB<\92\EB5\BC\EC\F0\DA\BA\E9E\0B<`\0A\8A<x\C2\F4<\C6\84#\BCwW\02=)\E0\02=\E8F\8E<\B2\8B;\BCQ\BE\DE;(\E8C<\BD\C6\07=X\E2\A6<@\E9[<\18\BA\A0\BCf/\1E\BDE\D3\09\BB\0ADk\BC\BE\13\8E\BB<#\00=\88/\CD\BB\1A.\A7;W\0A\83<\88\FD\81<\B9\B6#\BD\AEh=\BD\90\AB\08;i\94\17\BD\F7\A7%\BD\19U\0A\BB+\F5\FF\BC\B2\ED\AF\BC\C0H;<\BBQ\8F\BC\DA\E5\93\BC\D4-\05<\0C\AA\AB<>\88\0D\BD\88b\8C<\EE[\C6<'\83\AB<\E1\7FW\BC\C3\A2\9B\BCY\98\D4;\1C\B8\13:|\E8\10<%\88p<f\E6^<\DC\0D\DA\BC\FE\91\C0<r\FF\1D<K\B0<\BC\F1\F7\B5;\8A\CF\80\BBs6\B4\BC\ED\95\BD:X\DC\F3\BC\99\88\9D\BC~\F8\86;\EAo\B5\BC\8B\02\1A=]\02\0A\BCE\7F\83\BC\9A\B8\F9\BC4L6<\14\0E\8F<)\9B#\BD?\F9\98<\EF\DF =\D4^\10=\80\CEo\BC\AES\C0\BC^uG\BB\84\CA@<\81o\02=\90D\84<\F5\C3\D8<LS\CE\BA\DD\DC\A6<\FF\EF\B1<,M\BD<\B5\15\97\BC\B6 '\BD\C7\D1r\BC\88\9A\CB\BC\FF\8F\94\BC\D6\E8-\BC*\81\AC:Df\D7<\0F\\U<\E0&x;j\22\DC<\8E\DC\C1\BC\C4\AA%<6\1D3<\C3\14\E7<\BF\C8\83\BAK\EA\B3<\0C\C96;\83UA<S\FB\C0\BB\13\97\AC\BB&\7F\0A\BD@\BC\0D<j&U<\AD\A8\B3<\90\D3\81<\DD\F6\AE<\E3<+<w\A4\90<=2\92<\9F\0CP\BC\E6\D2k<\86\D2U\BC\BD\E7};\F5|\0C\BD_x\D1\BC\86\F2\97\BC2\E7\88<\D2\11\12\BC\1CE\8E\BC\EC.\BC<`\D5\E9\BC\AE3(<\1B\D8\95<cW\CA\BC\F4J\D5\BC\B9\08\D2\BC\C8\A9\A4<`\C6\DA\BC-\B5\BB<u{!\BD\B3\D0\10\BD1'\C9<X\BF\A0<\E0\1D5\BC\E4\0B\C6\BCi\A0\9F\BC\DB\FB~<-\DE\AE\BC\A4O\84<l\D7V\BCdc\9E<\B99\10<\05 \9E\BCm%\FF\BC\9A\88\A0\BC\B2\87\02\BC\\\9D\E7\BC\F9\86\D4\BC\A0\C1\AA;\F6$o\BCvva<\0D\82N\BCw\B9\05\BC\F7<\DA;\D8\F8\0B\BD4\1A\D8\BCn\17\97\BCZ1\FD\BC\DE\A4\A99.b\8A\BC.\19\85<GwW\BB\D4\FD\14\BD\D8\F8\86\BC\D7\AB\97\BA\91\EB\D6\B8M~\A3\BCsN\D7\BC8\8B\81<\C0\D9\85<Yb\B9<\99\85\83:\80I\AB9Xh\09\BC\A7Q\0B\BD\E8\F8\1A\BD?\DB\CA\BC\DB\C9\E5\BC\22=\DE\BC\B5P\BF<)h\DC<\04\8D\FD<h\88Z<}\A9\C2<\\A\09=\B8\AE\C8:\01\10\BD;\CE\8CW\BC\8E\07\0B\BDZ=:\BC/\C5\A4<\D4\10\14\BDpQ(\BB1\B7\EF<\9E\83\AF\BC=i\CA\BC\AE\05?\BCn\1EW;o\D1}\BC\1A'\CB<\13D\89\BC\CEI\C9<\B4_\89<oI\89<\F6\E9\0F=\B4s\AF\BC\8C\E1\AF<\DE$\BD\BB2\FAi<{\DF\FB\BBz\9B\19\BD@\D2\CA\BC\0F\80\0E\BD\1F\F5\FB\BC\0D\FCD<Um(\BD\14\F9\05\BD\C1\8A\CC\BB3\8Fh<a\BB\A7<W\84\CF\B9p&+:\80\D4\DC\BC\FD\13\FB\BC\8F8\E2;Md\D2<\B3\D2\1E\BD;a\C1\BA\00pK\BA\\rh<\00\C9v\BBL\13\0A\BDu\1D\93<\CFQ\D5\BB&\07\99<^\22\FF;\8A\D2\A6;\D4ok<5\EFs;f:\F6\BC\81\DD\B2\BC\12\C9@<\D8\9F\FC:\C1\94\02\BD\1F\EF\95;\F3M(\BDR2!<I\D8\9E\BC\88\EE9;@\CC/<\C3=\B7<e\C5%\BD\B7e\DF\BA\99\99\FD;\\\22\EC\BC\F1\91\C8<\8B\9B\C9<\18\9Db:\A4p\1C<\86\DC\E7\BBV-x\BC\CB\C9h<N\17\F7:\13\D0\DB<3\DB\8B<\A1\F71\BDC\BE\B2\BC\82\02\19<l\A19<\FD\B8\B5\BC\96:\19\BC\D6\E16\BDW\EF\F3\BC\D0T\B7\BC\00\AA\18\BC\97)\CC\BC\E9\FA\D6\BBb\B0\A5\BC\EEc\9F\BCQ^\E3\BC\CF\1E\AF;rY\DA;('\17\BDhB\1D\BCdWb<Cn\8E\BC\8F+\9D<j\C3\94<\FF\22\E2\BC@\1C\F8\BC\94\0C\C1<\A7\D7\D5\BC^Fd<\\\B2\05\BB\88\D7\D4\BC\B4\04\F7\BC)\175;\0FB\CA\BB,\C1\DB;\B0=\B5\BC\B7\CF\9B<>\02\09\BD\B4\9A/\BD\A3\88\AC\BC\83`\E6\BA\B6-\D5\BC_\D1\A8<\8E\16,\BD\9Bn\0F\BD,\FAe<\B5\83\B9<\0Bw\FF\BC\90C\00\BD\AF\D3\B6\BC\D5\A9\15\BDb\F9\06\BD\80\F7\99\BCp\064<g>\06\BD\F2\D7\92\BC6q\BF\BB\93\A1\88\BC\D4\CA\8A:\82x\A4;_x\08<\AC2\07\BC\8F\E6\9A<\A1\88\D4<\E9T@\BA\8E@\C9\BA\08\DF\0F\BDKHu\BB\84o1<\E1\1E\C3\BC\AA\0By\BC=j\DA\BB&l\E7\BC\F5\FE@<\CFS\B5;\8CB\9F;\F7ud;'M\E9\BCP\CD\E2\BCa/\8E\BC\94\AB1\BD#yU\BC\DE-&<\F2dA<\A52Z<6&\19<\C4\CC\A3<+\12\E1\BC\CA\DA\97\BCaX\05<j;\8F<\C7 \D5\BC!d4<,\F4\7F\BC^\93!\BD\95\7F\01\BD\C1\91J;\15\88b;K\FA\22<^\BA&\BD\BF\D0x<c\DA\C2\BC\AC>s\BC0\D2\0C\BD\EC\1A;\BD6\920<\EA\E2<\BC.\B1[\BC\EB\96\C6\BBj\DFd<\AC\BC|<4H)\BD\E8\A9\CF;\1F9\0E\BDj,\DD\BALD\89\BC\DF\F3\99\BC\AAb\16\BC`\DEX\BC\DC \FF\BC\8D\DF\F4\BC\CF\AC(<\AA\F8\A0<\89\86)<@\84R<]\F4\F4;\0E\22.9\B4j\8A<\04\E7\87\BC\C1\88\D5<\A5\AA\E1:\AFAS;\94\A3\B4<\CE\ABZ\BC\81\16\C7\BC\BAh\06\BB\CFT\1D\BD\0Cr!<{\0B\1B\BCO9\A5<\D0\B8,\BD\B0`\11\BD\98\E3\AE\BB\BF\0F\82\BB\C5\F0X\BC.B\02\BD\A0\F1\C4\BC\17g\F2;Wp\E7\BC\BF6\81<\8F\08_\BC\8B&N<HA\8A<(C'\BC\94\F3\92;S$c\BB\AB\A3Y\BC\F1\95\98\BC\F6\C3\B6<\02\C7\0F\BD\E9\D9\05<w\D9\22: |\B1\BC\AF\BE\1D\BCn\D4\CB\BC\06\03\E9\BC\BA\A0q\BC\B5\00\19\BD@\C5\04\BD:\91\E6\BB\1Ey\BF\BC\B1\1D\97<\A5T+\BD\06\A8,\BCn\CF\E5\BC\DC\9C\C8\BC3\8C\99<`/\8D\BC\81\E2\CB\BB\08\\\09<#3\B8<\F6\14P<\F2Y\F3\BC9\8B\B9<H\1D\D5<\D7\D60;)}\0B\BD\0En\81<*\1F\00<\9BD#\BD\8C\9F\D9<Wwt<\CC\84\06\BD-W\0E\BDK\88\06\BD\A3\0B\B8\BC\CC\9A\0E\BDk\D8\C6<X\F9\D7<a\F2\F6\BC\1F\90\BC;dU\13<\0Ail<\C4h\D2\BB\C0\F2\01\BD\17\BDm<_\85\EC;i\C6\F7\BC\C1\D0A<\08l\CB\BC\C0H\19\BD\BB\0Fa\BC\91\8E\81<\A8A\8F<G\D4]<\B8\E6\C2\BC\E2\0A\D1\BB\FE\93\A6\BC\08st\BBM\EA\8D<\\\DA\C7<\\\AC\CE\BC>-\CA\BC\8B2p\BC\9D\0D\81;F\EF\85\BC\DE\BB\9A<\09(j;\17\B6\12\BD\DB.\14\BC\AD\D4\17\BD@\1F\09\BDa\A5\F5\BCy\D9K<\8Eg\F5\BC/\EE\A1<\D2\81\0C\BD9v\1E\BC\C52\98\BC\F2\84\0F\BC\0D8a\BAE.\E6\BCXv\D9;\ED\04\B2<\F1\B8Q\BC\DEg\9D\BB\FF/\AA;G\9A\BE\BC\1A\D6\94<\E8\A2\B1<x\B5\9A\BC\B6$\AE\BC\E5\B6\CA\BC\C2\15\DA<\EFb\D9\BA\E8\BC+\BDM2\C6\BBc\EF\CE</\A5\80;\96R\87\BB\1DD\ED\BC\BF\E5C\BC\F6\AB\11\BD\F6\02\95<\97\EF\04\BDUL^<\E8\B6\80\BC7\BA\B2<\BFS\CA<\11\91\AF\BA\02\E3\B2<IF\DB\BCV\CA\91\BC\EA\EB\95<@X\E0<\B0\8E\8C<\9AF\CC<ek%\BC\D0\C2?;\18\15\02\BD\FF\8D\1C:\EFgF\BCM\100\BDx\CD\09\BD\81\17\0E\BD5\0A\B4<\1C$\9C\BC@\DB\A8\BC\BC\18\C0\BBk\D8\90<3\EE\88<3\FB\F3\BC\97\99O\BCA1$9JTV<\13&\AF<\22U\9C<F\EB\AB\BC\D33\08\BD1\DB'=m\EF\13\BDP\F7\C9\BB\160\85<\AD\A1\A5\BCi\99*<|\F8!\BCh\C2\8B;\E2\AA*\BD\89\C2\D6<\8B\F2\BB;\93\C9=<5qi\BC\DA\9D\0F\BD68\A0<\17f\0D\BCcg\B7<g\8BA\BCSZ6;\C09\C9\BB\8D\A0*\BCX\C6\CB\BC\87\0Av;\02z8<Z\09d\BB\09\9E\A7;\E2\17\D6\BCp\A9\17;\CE\D1\14=hH\DF\BCF\B7C;|\AE\EB<%=\AF\BB\F1\C2<\BB@\F4\1A;\DE>\F8\BCh\0D*\BDSX\E3\BC\F9\E8\09\BDd\C9\CC<\B1\BA\B1\BA\D0f\D2\BC\0B1\AC\BB\A3\97\A0\BC\9C\F9#=\EF\BD\DF\BC@\AB\\\BB\E2\F9\84<\DA\E0m<H\87\AE\BC\9B\C9\D7\BC\A7\C9\B8\BC\9DL\B0<\B5\19\8F<\BD%\98:\B4\18<<\97\94\A5\BC,4B<\1B\87\1E\BC*\98\CB;\E5d3\BC\E0\B5\9F<\F6)\02=\99\96\90\BCUb\03\BD*\1B\7F<\A0\FB\B9</v\E9\BC ]\94\BC\F0X\C8\BC\C7u0\BC\039\D9\BC\E9\EF<\BCP\00\81:&\8B\87:4\9E\C9\BA\8By\DC<O\F3\9D\BB\B6&\E9;\C9\BB\E9<\CE$\B3;I\BC{<\83G\DF<\B5\08\9C\BC\F5\89\D7<I\E8\96\BC\D3\03\F7\BC\F5\E1e<\A1\1F\1E\BD\11NT;\0A\F0\12=\9E\16I<\A5\97\B6\BB\A2gP<P<:<\90\A5X<2\DF\CC<Ic\FB\BC\DA\88\90<\84,\95\BA!\C4\11=u\8Bg\BCM\B1\9E<\BD\FB\DF<Q1^<{4\95:h\9CG\BC0\977;\87]\00\BD\90\9AM<\A1o\11\BDi9h<E\0D\06=\00)\06<\A8\CFF\BC\BE\F3\00<\AF4\81;%\B8\80\BC\C5\DEY\BC\C8\1D\89\BC\F4&\CC\BC>\EA\E2\BC\01\AE \BC\BC\17\1D\BCq\E2.\BD\FA\C3\D5<\DE?\9E<\0Bk\04\BDw\CF\D2\BC\CC\F3\15\BC\84\CB\18\BDE&\04\BD\E5\EC\E7\BC\14\D1\97<\B5\19\8C<\E7W\E5\BC\12\98\E4<\ED\D2\BC<9\DA\E8<\CF\19\88<;Z\1E=~\1C\E8\BC\08\17\CE\BC\FB\B0\AC;\1F\E8\22=/5\CB\BC\83\1F\E2\BC\EDr\E0\BB[4\8D<\EA\EC]<\9E\9EN<b\86\D4\BC|\AB\C9\BC\9D(\B8\BC\9F\08P<\8F\D5\EA\BCkP#\BD\E2\C4\EA\BC\81\EA\BA\BC&\0D\12\BD\F6F\E8:\E0F\04\BD#\B6\DE;\BE\CEr\BC\12\9A\DB<d\99\AC<I4\95\BC\91\22\AC\BC\A2X\AD<\92\8D\FB<\F3\CD\C2\BC('\D4<\8E\DA\09\BD\FEW\9B\BCV?\A0<\F8W\D5\BBnj=\BC\14\C0p<TMs<\91(\02=FW\B3<\8EJ\DA\BCje\CE\BC\B8\94\D4\BC\E0l\84<\B8\17\A9\BB\FB\A5\0B\BDp+5\BB\00Pd:r\FA\99<$\E9\AF\BB\A8\0A\A0<`\E4>\BB\F0\08y\BB$,\13<\8C\C2\9F<\B8\01y\BC\C0^\CF<v1\AA<\00\97|9\8A\D0\83<$L\CE\BB\9C\91\FB\BB\C2.\DE<H$\8F;\F8\02\C6\BB\FB\D1\0A=>\CD\84<\95\BF\C2\BCL\1B\DB<\00?=<\90m3<\94\DAy<H\87m<\0B\D3\0A\BD\C0\AA\C4\BB\9D#\00=\8B\A2\17\BDnG\E1\BC\EB%~\BC\D9\C41\BC\90\82i<pE\A5<J3\8D<E\DA\D3\BC\10X\18<\98\B5\19\BC\D2\83d\BC\E0\CFd\BB\C0\A1-\BA\\\11X\BC \AE\C0:\BC\98\9C<\9C\06\B2\BB\F8\8B_\BC\CA4\F3\BC\D8\F2\\\BC\16\83\CE<T\BC\9F\BC\D3\93\01\BD\BAZh\BCN\C45\BC\DC\BC\AF\BC\0A\1B\18\BD\A5\DAM<X\A2\92\BC\EE\EB\B7<\9ET\12\BC\B8m\8C\BC\E4n\18\BD\CC\F7\B2<RP\1A<\E8\90\D5<\08C\AE\BB@Z\D3\BB5\CD\DD\BCn\D2\FB<\F8\9F\A8\BC\90\F7\ED;\80\E5U\BAJ0\BA\BCNE \BC\BFS\CB<\EC\8Ag\BC\80.r<4\D2\83\BB\C3\18\D6<K\8A\EB\BC\9F\C7l\BB\D2&\D6<\FF\12\1B<\87\18\BE<\86S\BE:\D1\950\BD3\BC\EC\BC\9A@\A2\BCO\B8\98;\04\AC\A4\BA\ED\C6\D0<\B3\9DK\BCE\C6\9C\BB|\13\FA\BC@\91\B1<\C0t\89<\88(\16<\D9\86\0F=n\AE\A9\BC\\\0B\FD\BC\A0\86\E3\BC\1C\86\AF\BCj\16\AB\BC\82I-\BC\04\1E&\BDPo\CF<P\1E\94\BC\E1\8A\DD\BB\1A\95b<\A4\B5<\BC|\D0\F0\BB\8B\B6+\BD\06\AA\0E\BD=\E1\AE<y@\BE\BC\BF\DF\1E\BD\07\A6i<bP\9C\BC\C1eR<aU\AE;G\97\22\BD\E0-y;\15\AD\0F\BD\88\91\9C\BB\10\07\19;\C8\8C\99<g\CB\A3\BCh\15\B5\BC\EF\CF\FF<\CBq\D3\BC\90\81\00\BBY\14\FC\BC\8C\00\83\BB\E7\1Dw\BC\F3n\FE\BC\82'\8A\BC2\1B/\BD\FC\89\D2\BC3\D5n;2.\C3<\A6\9F\F7\BC\CA\F9\0D<\A0\00)\BDP\9E\B5<\9B\C5\AB<x\E0\DC<\B6D\13\BDu\A6c\BBk\EB#<\B3\FC\CD<A0\1C\BA\8D>\DE\BC\90\FC\16;\88\E8\BE\BC\EF\A4\05=\DC\CC\DB\BBf\E7*\BCo57<\0F\DD\86\BB<vb<\FC\C0z\BC8\F0\87\BA\FF\B1\9D\BC\B4\C1\0D\BC\82\E7\04\BD\01\D6\09<\15\F1\C9<\1BI\03<k\AD\0D\BD@\83\06\BB\E6\05\A0<v\8B\FC\BC\A7mf\BC\9895\BC2|)\BC6\EE\0C\BD2\DD%\BD\B5\DC\04=\B4\1C}\BCX\F0\0E\BD\C8\A8\DB;=\B5\AC\BCX\0C*;I\B4\88\BB\BE\D7\04\BC\FB\1A\AC:\091\0A<\B7j\D1:\CC\0Bq\BC\94\A8\F3\BC\A9\C4\C6\BB\B5\A3\D1:\A4Y$;\02\A2\A1<\0Ck\F1\BC\95\87H<\FBC$\BD\1F\FC\86<\13f\CD\BCw\84\E6\BC\C5\0B\9E\BC\10_\C9\BC\80&\03\BD\D5\04\CC<\D0\A8\06\BDU\E7\00\BD\E6\AF\1A=1\FE\0D=\19st<(\CE\05;\A6(\0A=\09\A0\0A=\A4q\BF\BBZ \E1;\0A\D3\C4\BC\03]\C0<\EB\B4\CD<)\93\18\BC9q)\BC\C0/\C1\BB\0F\03\9E\BB|\C4\BF<sh\83<\1E\DE&\BC\A1,2\BC\7F-\83<&\0F\DB\BCb\B44<L\83\F2\BB\CC2\16\BC\FF\F0\B0\BCj\0E\DB<\8F\D7\E0<\E7]\0B\BC\1D\8B\AE\BC\E2(\A8\BC:\89\DC<\A1\EF\EF\BC<\\\A5\BC\C0~<<x\16\A4\BC\CD\1D\8B<\98-\EC\BC\08L\12\BCTJ\18\BD\D1\F2\E7\BC\E4\DF\8D<gx\F1;\C0\A6\00\BD\E3V\DD\BC\1Cq)\BD[)\A5\BB\9BJ\F0\BC\EET\EE;\00\97\E0<\B5\DC\EB\BB\8FR\1D\BD8|a\BCg\F9\88<\121)\BC \E1$<\FEh\83\BCXT\99\BC\DD\ED\11=\86\82\06<5\0D\14\BC'S\C4\B9d\D9g\BC\E8\D3\83<\E0m\F7<+\9E\F6;\81\F2\A7\BC\F2/\19\BDO\7F\FE\BC\BF\A2\FA;\13p\E3\BCs\9C>\BAa\00x\BCq\A7\15\BD\FC\18\1B\BD\99\EE\8F\BCPQ \BD\1D12\BC!K\DF\BC\DBe\D8;k&\A1<\C1\82\0D<\9F\17\80<5m\9F;mW&=\80\8D0<ks\8D<\07L\09=\81t\10\BC\DA\CF\10=J\BE\05<\BC\E1\9A\BC\F9\18<\BC\FB_\F9<Q\C0\D3\BC\0AE\E8\BB\AB~y\BB\B9\00*\BCaO\0E\BDT\EF\1C\BD\A0\A2\B4\BB\18\FA\BA\BCi\B23\BB,\8A\90\BC6\0B\E5:\09 \8B<\F6\9E\B7\BBU\A2\A8<9\A0\9D\BB\18T\90\BC\8E\DDF\BCd\CC\A7<\D0c\B5<|\B3><\9DS\95\BAsE\FC<\1F\FA\92\BC\D7+\EF\BCZ)-\BC\10QM\BC\F6\0E\E3\BC\DA\13\EE\BC\A0\1E\0C\BD\1E\F8q\BC\97\94<\BC/\ABe\BC\EB(E\BC\10\B9*\BD\B0\A6\C5\BCP\D6%\BD\8A\10\CC9\F6<2\BB\03\07P8\BAh\96;l\04u;\97\0F7\B8\B1\C8\B3\BC\C8\C2H<\90/\08\B8\A6z\94<a\A6\CA<\19\F9\8F\BC\A9\1B\14=\BD\A7;\BC\C0\B0\B4<\FB\FB\A1\BB\BDf\EF;\06\D6\F9<qy\C8<z\D8[\BC\E0i\F5\BCOJ\CB\BCZ\D1\C4<\06\FB\F7\BCAr\EA\BB\0A4\BA;\C9\1E\07<\AF\09\AC\BC,\0B\FA\BCS\CA\88<\11\8C\F7\BB\AC\91\BC<Y\DB$;!\FD*\BCM\AD2\BD\93\11\83<MQ\C5\BC_\1A\E6\BCz\04\AF<\E6q_<\9A\0Cu<\86C\9B\BC\9D\B2\BF<\AC\06\0F\B9\E8~\9D<\B3\9C\FA<\CE<\ED:\83JF:w\D9\1D\BD]\C8~<3\DE\A2<a\93\D8\BC\05Y\E1\BC<\9E\E1\BCh+9<\E9\\\1E\BDFp\89<\DC\AA\18\BC\AFYt\BC&\1F\B4<\96\DAF<\F8H\E0\BC\80\A0\1E\BC\CAG\A2\BB\D4)\FC\BB\EBG\BB\BC\96\ED\00\BD\11X\E7:(\A0\9B\BC\D0x\04=4?\15\BC\A4\F8Q<\8A\C9N<{\E0\1F\BC]\DAz<)\C0%\BDQ~\1C\BD\D5\8B\1B\BC\0D\87\B3\BC\1E\99\99<\F7\E5\D0\BC.\06\86<\13\F3[\BB\DA\CB\D9\BC\E8\C6\B2\BC\D3h0\BD\E9h\19<\81\AC\8B;\BF\9A*\BD\97\FF\07\BDe\13\8C;\DF\84\8F;\91\E0\04<\FF\16\01<\CD\05\C5\BC(\A7\02<\EALa:\B3\0B$<\EF\CA\90\BC\F2\E3\E7\BB\16\E6%\BD\F7\AA9<,}8\BD\95P<<\E0\FF\80<-h\9C\BB\BD\E8\85<\DCF\FE\BC\96\9A\D1;\0A\16\0B\BD$\8E\CE\B9W\D0\9D<nE7<b\FB\80;\B3\02\94\BC\1E\A4{<\80\FE\90\BB\9C\02\88<\A4\C8\DA\BCb\D4\19\BD\D8G\AD<T\B3\C8<\93\F6\1D=\01\DE\A6\BB\12\95b\BCS\7F\A3\BC-\FC\1D=\A3\1B\14\BC]q\1C\BD\0E\F3\15\BD\16m\B2\BC\C1Q%\BD|9\A2<{\A1\B0\BC v\0D\BD\D7\82\98\BC=\97\D9\BC\C2\CFq<\B7\16\A1<x\CE\CA\BC\100\11:\80:\01\BD[\A8\D6\BC\F5\1A0\BD\C6R\B7\BB\1A\C2\05\BD\E7\8D\A6<\A1=e\BBF\B5*\BDwl\F1\BC\C7\02\D8<O\ED\EB\BC\ED\1A\B3\BCQ\AD\BF\B8C\B5\B5\BC'1)\BD\DE\EE\85<\87,\0D\BDB\DE\9C:\AD\F0\C2<\80\E1\10\BC\CE\17\AC<\8Et\94<, \22\BC\B1\8C\0D<j\C2-<\0A\A4\E4\BB\F6\0B\C4\BCW\F3=\BCU\961\BDX'\DA<\C6R\B4\BC\FC\B8\09<\84\E0\E5\BB~&;<\12\930\BC\11\F0\E0\BB\B8\9CV\BBM\EB\01\BC)\FE\A4<\A1[\80\BC\EBy\0F<fV\91<7\17\91<\DD\0F\DC\BC9\11\F9;*T\94\BCp\0F\B1<2{_<#\0F\CD\BC\1A\075\BC\91\F0\05\BDM\0Bg<\1D\CD\FF\BC\0C\12\C0\BC8E\D0<\E2\0E\F0;\AE\00\84\BC\8D_*\BD3L\8A;\A9h\8A<\D4(W\BC$w\F8\BC\AA\C5Z\BBS\BD\10<\F5\B7\E8<\AB\9B\CE<P\BC\F0\BC\BF\F8\CF<G\F6\8B;\B1;R\BC\93\0B\03<\CE\EB\A5<\0D\\\11<\DA\07\17<=W,\BD\A2V\12\BD\1C\F6\93<9[k\BC\D7n\A9\BCX~\B9;\F4\F8\DE\BB\DE\14\1B\BD\F3\83\DD<\0E\0E\B8\BB\07\F4c\BC7\EA\0A\BD\F8\97\84\BC\0F=\10\BD\16\CE\89\BA \BA\C7\BC\F7\12\95\BC&9\0C\BD\0F\1B-\BB\D6\86\05\BD\A0\AF\C5\BC\DE\B4\18\BD\F4\1C\D9<\01l\FA\BB#>a\BB\C8\04\15\BC\8Di\B7\BCv\AC+\BC\F1l\C3\BC]\E8\0C\BD\87D ;\F9~\1F\BD\1F\D0$\BC7\F7\E2\BC\AD\DF\9C<y\10\14<\BF:(\BC\C9\9Fv;\EA\A9\FB;\B2\EA\1F\BDN\1E\0E\BD\DA;\CB<\9FS!\BD\D8\1A\C2;\E5\86\22\BD\FF\E6\E6\BC\F4\0E7;\7FC\84<\93SZ<\DA1\1B\BD\8B\04\8B<?\82\FC\BCo\83\9B<U&\CD<\00o\A6\BC x#<\9F\F9\E2\BCe\F2\D3<\84j/\BD1\E8\DD<2\D7.<\03\A5\D0<\08\1A\08\BD!\0A\8F:\BFn ;\C4\A4\A4\BC\A5j\05\BA~v|<\01\01!\BCh\99X\BB\\\A6\12<N\97\1B\BC\0C\F6?<\A6zc<\9EO,<\CF\03\AA<\01J\B1<Ks,\BC\22\9C\82<k\8C\A0\BA:\CC\C9\BC\8B\CA<\BAw\E6\B1<\92\D9`<:p\8E\BC\B0y\BF<+\F2\FD:$\03\83\BC;\FA\8B<D\9F\B4\BC\0D\9C\EB\BB\DF\D4\19\BD\00\A7\CE\BC*\E6\AD<K\90+<[\D5\DA\BC\D0g\BE<p\AF\9E\BC\FA\AB\D6;\0B\1F\A0<\0B(\0C\BDw\F9M<\D21\96<&<A<K\15\03<\928\A4<\E5\FC|<~\12\EC\BC\CC+\CB\BC\C2\170\BD\02\B3\D0<\C7\18\F6;\D4\E5\BF;\02\A7m;7c\8E;\B1\A2T\BC;\A4\9A\BC\9A\E0\D0;\91`\\<\07\19\D7<\9D\07\AF\BCr\F7\DC\BB\F2n\DC\BC\F6#l\BCu\C7\\<\FFn\E1\BAl\06\AC<;\B9#\BD<\C3G\BB.A\08\BC\92\94\92<\FF\90\A5\BCIQ\0D\BD\12\FC\98<\F7B\15\BB\9F\026<\D2s\FC\BC\F2\16\11\BD\8C\A3\CE\BC\B1\D1#\BD\C8\D8`<\F9m#\BD\F2\B6\9B\BC0\95)\BD\DF\A9\D8\BC\BD\8A%<\92\C6\C7\BC\F4\F3\E6\BA\22C\15<,?\8E\BB\D5\D2(<\D6\CB\E1<\BE5\98\BC\97i\B8\BCt\F1\0F<o\F6\8E;\119Y;9]/\BC\8APt\BBy\B0\F2\BB\FAV\9D< \1A\D2\BC\AB\A6\7F:]Q:<\FA\C9\DD\BB\CB\F9\8F;\FE\7F\12\BD6{\1B\BD[Z@<Vu\D9\BC\22-\82\BC}k|\BC\D7V$\BC\05s\87\BC\E9\90\C9<`\89s;(.\CF;\F1!$\BD\AA\F2\94\BC\F2=Y9K\0D*\BD\E7\12\88\BC\81h\BC\BC\F1\03\92\BC?\C2\84<\BEn\1A\BD\9C\82\B1<n\D4j\BC\F8l\F0;pKt;\9AW\DB<\88\C3\92\BB`\7F\17\BD\108x6\EEs\97\BAhJ\C8\BC5S\B5<\AA\09\B1\BC\D1\90\A1\BCx\D2\99\BC\D8\04\C8\BC\03\9D\C0\BC\E2\91\DC<\C0c\CB:\A5\F9\E5\BC\12\D4\DB<\96\03\FA<\EE\B6\85<\99\B5\07=\E2\ACi\B9?\8F\8A\BC\B1\8C\1F\BD\06\82\96:|\AC\07<4+g<|X\15<\D8\9B\10\BD\1C\DCq<\1A_\CB\BC\07_\0F=\A5\9C\C2\BC\B6:q<\BE\A7%\BD*\85\E6<\AE\BF\F3<\EFk\06<\A3\19\D2\BC\08\C7W<\FDU\F7\BC\16b\87\BC\97\CF\E8<\C1\82\0D\BD\B0+T<[\F3`<\8D7\B0\BCc\9B\DD\BC\11\95D;p\17X<\C0\1C\DF\BC\B6?\98<wO\1E<\BC\22!\BD\FC\F8\8A\BC\C0\AF\1E<J\82|\BC\DCg1<\00=h\B9\B6\13\DF\BC~-\B3;\C6\B5&<\94\EE\03\BD\E6Mw<\F6\96\BD\BC\98\B4\1F\BD\88/\17<\04\A4\0B<\8F\13\C9<[\8D\DF<xV/;\C8\D1Z<\CA\03\CB\BC\B1%\EE\BC\A9\9D\D4\BC\A92\F7\BC\AF\8D7;[R\82\BC\7F\C1\8B;\E9\99Y\BC\14'\B7\BCq=\19\B9c\D3\D3\BC\A5\B1\81\BCS7\0C=\9C\99\00\BD\AB\14\D4<a\C4\19\BD\8EL\08\BDG\06\\\BC0/#<\E1|\06\BC\F9W\85\BC\04s\91\BCYHP<j\06\EB\BC,\0C\CF<\CD\9D\B0\BB`\13\98\BC\A1F\11\BD\E7\BA`\BA/t?<\BD\C3\F4;\0Ev~;?%\13\BCp\1C\8F<\1C\F8\BB:\0A#1;\B7N\C3\BBA\F0\AB<\8E!\E4\BC\CA\A7\DC\BC\A8\EF\D0;p\89+<\8E=\E7\BC\10#\B0<\02\A0\95\BB\F4J\B7\BC\96\BB\0A\BC\C0m8<\02u\E9\BC\D3+\1A\BD\08\B4\11\BD\85\9B\0C\BD~\10\8E;1\FE\\\BC\A8\C3\FE;h/\A8<\CA\A5\D3\BC\BD8\22\BD\DB\0E\91<\EF0\9D<\1D\FB\84;\A2Jp\BCi\8EF\BCMi\09\BD?z+;\DE\1C\1C\BD;\A1\E4\BB\E0\E8+<\A9\22\09=&}\CC<U5\1D<\DFd\9B<\00\FD;\BB\DD\0A\92\BC\A3\04\0A\BD\CDJ\BA<p\1A\BB<\BCu\F5\BB\F9#\9F\BC\C8\08\16\BD\EB\A3\DB\BC\BF[\1A<p\A9\AD\BB|\01}<\93C\B3<s\BF\F7\BA\A9Y\91\BA\90\CC\A0\BC\8E\9A\0E\BD\D3p\09\BDZ\E5/;8\FB\F3<\98\F8\ED<\9F\1A~<\FF\DAw<\F0\A7\D2\BC\B9\B2\02=\D0b\DA;\A2\99\FA9\B2B\D9\BB\EC\8B\B2;\09\A2'\BDRY\EA\BCfPE\BC\CER\A9<\C3\92\83<\99\\\8F<p0\AF\BC\89\9F\89\BC\7F`\E0<\16\87\88\BA\F2\F6\EF\BB\BA\DF\0D\BD\81\0C\94\BB\A4\0BX<\C2\CB\91<h\06\0F\BD\05\98\1B\BD\C7\DC\E2:\FC\ED\DE\BC\B4L\04\BD\15\D6\02\B9\B2\D9\EE\BC\D5p\FA\BC0ky<\80\E3\F3;v\16\92;\D3\C9\BC\BB\F0V\D3<\CC\97\EF<@b\ED\BB.H}\BC6!`\BC)\EE\DE\BCM\D1\02:\B7\A5\8E\BC\ABv\B9\BCu<\86<\80\05\94:\BF*\A0\BCr\22\D4\BCT$\E5\BC\1B\0Ei;\AE\87\EA\BBc\07\DA\BCf\9C\C7\BC\1B\83i\BC/\92&\BD\93\CE\10\BC$\9B\88<\C5\F6\CB<\E6\F8I\BC\94Q\C0\BB\94\E3\A0\BBT\A2\F2<\D0\E6\84\BA(\C0);\DEKW:~L\9A:#\E4\C6\BCD:\C7<&\E6\07\BDs\FE\D7;D\D4\F8;Z\DE\0E\BD\C1\A9\B5<\A9\C5\1D\BD\F0\1A\09=\A8Z\19<\05\03\DC<\FE\DC\AB\BCD\F3\99<M\0Ey\BB\93\FB\B5<\DB]U< @\B8<<{\16\BD{VX\BC\17\12:\BC\10)+\BB\F2\B3\AA<\09\90\0F=\88\DE\88\BC\98\05\B4\BCE\00\BB\BC\912\91\BB\96re<\02(y\BC\D1~\D2\BB\DD$\A5<y\9D\1B\BCw\EC\F3\BC\F1\EE\AC\BC\1B\01\C5<\B3\9C\A3\BB\02\C9\85\BCh\C4\C0\BB\E8\C8\89\BC\99.\DB\BB\E3l\0E\BD\BE\87\A5;\E8\82\A4<d\C9B\BC\85y\85\BCL\DD\AA<;\E0\1E\BD\CEq\F9<\D8\86\04\BC+\CD\0F=\90\09:\BB\EC\F3\04<-I\1A\BD$\95\AF<\10\90\18\BB\BA\CAV\BB\87Ad\BC\C0\C0\92;\93e-\BAo\A8\93<\87\B2\F9\BCQ\C2\CC\BCH@\EB;\A6\8B\9C<\B1]\8D\BC}\81.\BDX<i\BB\DF/\FA;\DF\18\A3<i\9D\AE\BC;Z\D3<2=P\BC\B0}\AB<@\03\92\BC9\B9\0E\BDL\E42\BCx\A3\89<\9C&\CD\BB\B7p\11=\FEo\0C\BD\A7\E4\C2;\C5a\B3<*e\CB;i*\B2<\AFK\C1<Pq\1D\BDU}\04\BC\BF\82q\BC\B4\0F\F9\BB\BD\82a\BC\04\D2\CF\BC\EFH\A5\BC\95\E6\D1\BC\16\81.\BD7\EB9\BC\C9\C3\91<$u\85<\D9\84\1F\BD\9Fy\C0\BAg\80\09\BD\16a\E0<c\F8\AA\BC\0Eo\9F<\F0\8C\EC<\FE\A7\AC<\F02~\BB\85\FE\85\BC\98\\\94:\05\A5=<\DD[z<-V\1C\BD\D8\9D\FB\BC-Ss\BC\B8\81\09\BD\02X|\BC\80y\0C=\D5\FC\D7\BC\F2wG\BC,\A3\DA<\DD\99\CF<\B7N\BF<#[\81\BB\13\D0\B9<E\DF\07\BDf\0F\C9<%O\B9<\F8\FC\8C<\BD\C6\E1<\EF\86;<\05\A6\FD\BC\A4\B0\9E;\9C\E4\06\BD\0C\07\B6\BC\90\D6\84\BB\D7\E9\0D\BD\BAk\D1<\F3\B5\9A<\CC\0D\12\BD]\CC\0D\BCa\83\02\BC@\10;;\DC\DE\00\BDi\1D\C4\BB\98\B0R\BCG\B7\E3\BA\07\04g\BC\A13\22\BCi\CA\E7<\E0\1A\0E\BC\AE\8E$<s5\CE\BC\E5\CC\E1\BC\B2\E1\03<\E5\F4|;\BAd\11\BD\CB\F8\F0;)T\A5<E\F7\09\BD\91r\10\BBj\F8{\B9a\15\BE\BC\CCK\0E\BD\B2 \9C\BCO\A3o<;q\11\BDxs\E8<@V\BE<2\E2\BE<\94\03\D6<I\F2:\BC\14\13\10< G\03\BDX\83\B1<\CA\0AK\BC\EB\E8\A4<^g\DA\BBZ\EB\A3<\04\15\8A<j&\18\BD\AB~\9B\BB\08\DB\F3\BC\CFv\0D\BD\E04I\BChi\D5<\BD\DD\CA\BC>\92\E4<\CAa5\BC\C1\DD\D2\BC#*\A7\BC\D7\F7\01\BD\C3<\EA:u!\06=\A2\D5\D4\BC$\CA\19\BD\C7i\E7\BC\13p\14\BBsg\09\BC\B9bW;/Y\B2<\AC\A7\EA\BB\1B\FC\C4;\BB\F7\1D\BD\C4\8C5:_!?<\EB\B2\A9\BB+\0D\18<2\E0\87\BC\EE\9A\95\BC\8C\A4\80;\01cJ<ma\B2\BBCqj\BC\C9\03\AC:\B1\E3\B6\BC'\FF\B7\BCe\9C\DC<\C7'/<v\A5\C2:@\AE5<\99\A5\22\BDg5\C0<\09\EF\00<\C2s\B3\BC#\03\EE<\A7,\F5\BCW\96\81\BCwS\B5<\0A<\F2;8\C5\1B\BD\1B\F8\CF<\9E\F4.;0\FF\8C<\FF\0E(\BC\8C\C9\04\BD\DF\10\01\BDp\BE\80<qi\FC\BC\C5\1F\BE\BC\F7b\AD\BC\F6b\0F\BD\D3\8A\D6\BC\003\85;\D4N\13<-<\E0<t\F6\17\BDtiU\BB\DA\D9\FB:\0C\A0u;\EB\C9i<k\E4\9B\BC\0D\01\A7\BBu>\CA<*y8<\A4f\F1\BC\E5>\1A\BD\EBP\BC\BC\CF\B6\80\BC\92\F8\A3:wv\B3<4\0D$\BC\BD\CD\D0\BC\82\AF\98\BCs5\03\BD\CD\CD\9A<\AD\EF\19<o\0A\14\BD\94a\0E\BC\E0%a<\F1\DD\9E;\A6h\19\BD\85\D0\FE\BAijn\BC5G\C3<\A0\D9\11\BD\7F\86\D9;KG-\BB\9C7\A8<-\06\D9:\94D\DC\BB\965_<8\E3\07\BD\CAt\1F\BBz]\09\BD\F4\8AM\BCa\05\B0\BC\003\09\BD\B5\EF\91<U\A2\85\BCb\0A\E2\BB\FA\F1\C1<\19\98j<}8\0F\BCh,k<T\04-\BDMK\C5<\81~\16\BDbeK<5:f<!m2\BC`\DE\F6\BC\22\C6\E1<\05\9E\C8<\E1\C1\C6\BCVp\A0\BB\99\D5\D7\BC\01\E3\D5\BC\93\E9\EB;R,\1A\BD\DE\08\E2<\EC\F7\B0<\FC\A3\9F<\88\FDp<gX\1B\BD\C9=\9C\BC\BD1\04\BD\E2\8D\A2\BC&\19\F4\BC\D2#\14\BD_\0F\FE\BC\09\86%;\09\AA\BA\BB\10;\8E\BC\95\9F\AB<\1Dk{<\80\DE\B8<\B9*-\BD&\D4\B3\BC\EA8\DE<sj\81\BC \0A\EE\BA\F0a\B9\BB\F2\02\D0<\1A\90\11\BC\BF\F7\AC<\FA\B6\93<$AK\BC\D2@\83<\B9\89\1D<%\81!\BDl\E7\C2<I:\86<{+\F1\BC\B8\F6\D9<\95\9F\98\BB\EA\B3\ED\BC\93\07\D6\B9\9B\977\BB\1A\D9\D8\BC7\FC\90<\89k\D0<#\B8*\BC\DE\04l\BB\91g\E3<\AB\90`<G\C6\16=\8AQ\CC<\00\DE\83\BC\A0k\01\BBh\F1\AD;\B0$=;*Z\85\BC\15\08\9B\BB\A4g\8E\B9\13\C1)\BB\B3\0C\9E\BB\FAs\09\BC\90=\AF<\0C\12\9D\BC\99\F0\95:\96\DB\D1\BCD\BF\1F\BD0\7F&\BD\04<\93\BCH\B6\CF\BC\B7r\D3<.\F8r<3\F5\0E=\95m\03\BD\BB+E\BC\84D\C1\BB\E3\BD\BD\BC\1CW;<\81\F9\F2\BC\0E\19\E1\BC\98L\AC\BB]\E2\22\BD\E2\EA\DC<\D9Q\83\BAk\1F\7F<\22\A3\85\BC\1AJ\99;\CDz\BB\BC\F2R#\BD\B3un\BC\BC\11\0C\BA\A3D\90\BA\EB\86\11\BD`\1C\ED\BC\A9\0Bj<[]\A2<4\E7\80<k|\05;\D6|\AD\BC7t\AA<\11!\9D\BC\B5\A0\1F\BD&\C8\CA\BC\BC\F4\02<}\CC\C4\BC\FB! \BCYO\EC\BC4\C3f\BB\12@\D6:A\D0\C2;%3\A5\BC\B7\82\DC<\DE\8A\8C\BC\84\11\9E<\8C\86\05\BC\FC\C6\F0:l\EA\83<\D7\A0\15\BD\FE\D3\F5\BC\81P\9E<,/\9C\BC\C8\03\AE\BC\FF\DF\F7\BC\AB;\F6\BC\9E\A5\DB\BB-\D5\F7\BC\D7\BC\BA\BC\1D\9B\EF\BB\D9\DE\B4\BC\003\DB\BC\9A\D57\BC9\A9\D3\BB\88\86\A9\BB\C2@\1D<&\9D2\BC\1A$9<\92N\A8\BC\CE\062\BB\14\8D\13\BDW\E8\1C;\98\F6,<'\0F\B7<\BFW\AD\BC\0B\EA\A1\BC\1D\1B\BD<\1A\03\ED\BC\00\F3\9F<\CEW`<\C7\E4e\BB!\CD\8E<\B1j\B2<\B4-{\BC\DE\EA\CC\BC\19\19\E5\BC\F02\B2\BA\FCq\1B\BD\E0+\13\BD\B9\F9\E8\BC\C1{K:\A0\90\87<W|*\BC,\17\22\BD\E5\AE'<g\D9\E8;ke,\BD\98\E7\FF\BC\DF\E5\A5\BC@B\F9\BC=sy\BB\DD3\07\BD\D9Y\0C\BD\F6\8F\B7<2\0F\96<\AB8x\BC\19\FF\9C;WY)\BD\FB\F1\86<O\F7#\BD\19\F8q\BC\84\D4\0B<\8A\BD\D8<\AE/\8D\BB\95\B8\1D\BDJ\CCg\BB\92\E7\9A\BB,